{
  "version": "1.0",
  "truncation": null,
  "padding": null,
  "added_tokens": [
    {
      "id": 0,
      "content": "<PAD>",
      "single_word": false,
      "lstrip": false,
      "rstrip": false,
      "normalized": false,
      "special": true
    },
    {
      "id": 1,
      "content": "<UTT>",
      "single_word": false,
      "lstrip": false,
      "rstrip": false,
      "normalized": false,
      "special": true
    },
    {
      "id": 2,
      "content": "</UTT>",
      "single_word": false,
      "lstrip": false,
      "rstrip": false,
      "normalized": false,
      "special": true
    },
    {
      "id": 3,
      "content": "<CMD>",
      "single_word": false,
      "lstrip": false,
      "rstrip": false,
      "normalized": false,
      "special": true
    },
    {
      "id": 4,
      "content": "</CMD>",
      "single_word": false,
      "lstrip": false,
      "rstrip": false,
      "normalized": false,
      "special": true
    },
    {
      "id": 5,
      "content": "<BOS>",
      "single_word": false,
      "lstrip": false,
      "rstrip": false,
      "normalized": false,
      "special": true
    },
    {
      "id": 6,
      "content": "<EOS>",
      "single_word": false,
      "lstrip": false,
      "rstrip": false,
      "normalized": false,
      "special": true
    },
    {
      "id": 7,
      "content": "<UNK>",
      "single_word": false,
      "lstrip": false,
      "rstrip": false,
      "normalized": false,
      "special": true
    }
  ],
  "normalizer": {
    "type": "NFKC"
  },
  "pre_tokenizer": {
    "type": "Metaspace",
    "replacement": "▁",
    "prepend_scheme": "always",
    "split": true
  },
  "post_processor": null,
  "decoder": {
    "type": "Metaspace",
    "replacement": "▁",
    "prepend_scheme": "always",
    "split": true
  },
  "model": {
    "type": "BPE",
    "dropout": null,
    "unk_token": "<unk>",
    "continuing_subword_prefix": null,
    "end_of_word_suffix": null,
    "fuse_unk": false,
    "byte_fallback": false,
    "ignore_merges": false,
    "vocab": {
      "<PAD>": 0,
      "<UTT>": 1,
      "</UTT>": 2,
      "<CMD>": 3,
      "</CMD>": 4,
      "<BOS>": 5,
      "<EOS>": 6,
      "<UNK>": 7,
      "\n": 8,
      "!": 9,
      "\"": 10,
      "#": 11,
      "$": 12,
      "%": 13,
      "'": 14,
      ",": 15,
      "-": 16,
      ".": 17,
      "/": 18,
      "0": 19,
      "1": 20,
      "2": 21,
      "3": 22,
      "4": 23,
      "5": 24,
      "6": 25,
      "7": 26,
      "8": 27,
      "9": 28,
      ":": 29,
      "<": 30,
      "=": 31,
      ">": 32,
      "?": 33,
      "@": 34,
      "A": 35,
      "B": 36,
      "C": 37,
      "D": 38,
      "E": 39,
      "F": 40,
      "G": 41,
      "H": 42,
      "I": 43,
      "J": 44,
      "K": 45,
      "L": 46,
      "M": 47,
      "N": 48,
      "O": 49,
      "P": 50,
      "Q": 51,
      "R": 52,
      "S": 53,
      "T": 54,
      "U": 55,
      "V": 56,
      "W": 57,
      "X": 58,
      "Y": 59,
      "Z": 60,
      "\\": 61,
      "_": 62,
      "a": 63,
      "b": 64,
      "c": 65,
      "d": 66,
      "e": 67,
      "f": 68,
      "g": 69,
      "h": 70,
      "i": 71,
      "j": 72,
      "k": 73,
      "l": 74,
      "m": 75,
      "n": 76,
      "o": 77,
      "p": 78,
      "q": 79,
      "r": 80,
      "s": 81,
      "t": 82,
      "u": 83,
      "v": 84,
      "w": 85,
      "x": 86,
      "y": 87,
      "z": 88,
      "’": 89,
      "▁": 90,
      "▁<": 91,
      "CM": 92,
      "D>": 93,
      "OS": 94,
      "T>": 95,
      "TT>": 96,
      "UTT>": 97,
      "▁</": 98,
      "CMD>": 99,
      "OS>": 100,
      "▁t": 101,
      "\n<": 102,
      "BOS>": 103,
      "EOS>": 104,
      "▁<UTT>": 105,
      "▁<CMD>": 106,
      "▁<EOS>": 107,
      "UTT>\n<": 108,
      "▁</CMD>": 109,
      "▁</UTT>\n<": 110,
      "▁</UTT>\n<BOS>": 111,
      "=\"": 112,
      "▁s": 113,
      "▁c": 114,
      "ea": 115,
      "▁f": 116,
      "or": 117,
      "te": 118,
      "in": 119,
      "ck": 120,
      "om": 121,
      "ch": 122,
      "ex": 123,
      "on": 124,
      "pe": 125,
      "▁p": 126,
      "ou": 127,
      "re": 128,
      "he": 129,
      "com": 130,
      "▁n": 131,
      "li": 132,
      "ext": 133,
      "▁text": 134,
      "▁text=\"": 135,
      "ear": 136,
      ".com": 137,
      "earch": 138,
      "▁cli": 139,
      "▁click": 140,
      "▁b": 141,
      "ps": 142,
      "▁search": 143,
      "▁ty": 144,
      "▁type": 145,
      "▁for": 146,
      "▁the": 147,
      "er": 148,
      "ig": 149,
      "ld": 150,
      "▁u": 151,
      "▁in": 152,
      "ate": 153,
      "lo": 154,
      "▁to": 155,
      "ab": 156,
      "tt": 157,
      "go": 158,
      "it": 159,
      "ar": 160,
      "se": 161,
      "av": 162,
      "▁a": 163,
      "ie": 164,
      "avig": 165,
      "▁navig": 166,
      "qu": 167,
      "▁qu": 168,
      "▁navigate": 169,
      "you": 170,
      "▁go": 171,
      "to": 172,
      ".com\"": 173,
      "ery": 174,
      "cr": 175,
      "▁m": 176,
      "▁query": 177,
      "▁query=\"": 178,
      "▁you": 179,
      "rl": 180,
      "ield": 181,
      "▁url": 182,
      "▁url=\"": 183,
      "▁field": 184,
      "ow": 185,
      "▁pl": 186,
      "an": 187,
      "ll": 188,
      "ww": 189,
      "▁field=\"": 190,
      "ss": 191,
      "rec": 192,
      "st": 193,
      "▁d": 194,
      "▁ste": 195,
      "le": 196,
      "ack": 197,
      "//": 198,
      "://": 199,
      "htt": 200,
      "▁url=\"htt": 201,
      "ease": 202,
      "ma": 203,
      "▁please": 204,
      "ps://": 205,
      "▁url=\"https://": 206,
      "ti": 207,
      "▁tab": 208,
      "nt": 209,
      "ub": 210,
      "▁pa": 211,
      "▁steps": 212,
      "oll": 213,
      "▁scr": 214,
      "▁scroll": 215,
      "▁into": 216,
      "tion": 217,
      "wit": 218,
      "ge": 219,
      "23": 220,
      "ew": 221,
      "▁o": 222,
      "ad": 223,
      "ard": 224,
      "s\"": 225,
      "ward": 226,
      "▁h": 227,
      "▁on": 228,
      "e\"": 229,
      "is": 230,
      "▁steps=": 231,
      "Tab": 232,
      "▁bu": 233,
      "ould": 234,
      "▁w": 235,
      "tton": 236,
      "▁button": 237,
      "00": 238,
      "▁l": 239,
      "▁re": 240,
      "load": 241,
      "123": 242,
      "ve": 243,
      "▁page": 244,
      "ee": 245,
      "am": 246,
      "witch": 247,
      "irec": 248,
      "▁switch": 249,
      "irection": 250,
      "ht": 251,
      "w.": 252,
      "www.": 253,
      "▁url=\"https://www.": 254,
      "il": 255,
      "ipe": 256,
      "pen": 257,
      "▁open": 258,
      "▁up": 259,
      "▁could": 260,
      "wor": 261,
      "▁direction": 262,
      "own": 263,
      "sswor": 264,
      "ssword": 265,
      "▁new": 266,
      "el": 267,
      "mail": 268,
      "ay": 269,
      "recipe": 270,
      "ount": 271,
      "ress": 272,
      "▁am": 273,
      "▁amount": 274,
      "▁direction=\"": 275,
      "▁amount=": 276,
      "ead": 277,
      "ap": 278,
      "eat": 279,
      "bc": 280,
      "▁recipe": 281,
      "eed": 282,
      "▁co": 283,
      "▁v": 284,
      "og": 285,
      "back": 286,
      "eedback": 287,
      "maz": 288,
      "▁th": 289,
      "mazon": 290,
      "her": 291,
      "▁S": 292,
      "t\"": 293,
      "▁forward": 294,
      "For": 295,
      "▁clo": 296,
      "▁goFor": 297,
      "▁close": 298,
      "▁goForward": 299,
      "ta": 300,
      "▁e": 301,
      "eather": 302,
      "ke": 303,
      "ter": 304,
      "ing": 305,
      "de": 306,
      "me": 307,
      "▁N": 308,
      "ple": 309,
      "ube": 310,
      "cri": 311,
      "ign": 312,
      "be": 313,
      "scri": 314,
      "ubscri": 315,
      "▁steps=1": 316,
      "ce": 317,
      "▁tap": 318,
      "ind": 319,
      "ok": 320,
      "tube": 321,
      "▁me": 322,
      "▁head": 323,
      "ct": 324,
      "at": 325,
      "rom": 326,
      "ogle": 327,
      "▁back": 328,
      "Back": 329,
      "▁goBack": 330,
      "pa": 331,
      "dd": 332,
      "▁bo": 333,
      "tock": 334,
      "▁lo": 335,
      "▁reload": 336,
      ".go": 337,
      "dex": 338,
      "▁now": 339,
      "▁index": 340,
      "▁switchTab": 341,
      "▁index=": 342,
      ".google": 343,
      "20": 344,
      "ix": 345,
      "ur": 346,
      "en": 347,
      "▁lin": 348,
      "hel": 349,
      "▁Y": 350,
      "▁text=\"s": 351,
      "ght": 352,
      "light": 353,
      "ight": 354,
      "sta": 355,
      "▁box": 356,
      "▁1": 357,
      "ork": 358,
      "▁press": 359,
      "▁can": 360,
      "ia": 361,
      "▁weather": 362,
      "▁link": 363,
      "ec": 364,
      "▁York": 365,
      "romo": 366,
      "ut": 367,
      "▁New": 368,
      "password": 369,
      "hn": 370,
      "ohn": 371,
      "do": 372,
      "witter": 373,
      "▁down": 374,
      "ser": 375,
      "isit": 376,
      "▁visit": 377,
      "bc.com": 378,
      "nam": 379,
      "▁text=\"S": 380,
      "ment": 381,
      "down": 382,
      "▁news": 383,
      "▁pix": 384,
      "els": 385,
      "▁pixels": 386,
      "right": 387,
      "▁ch": 388,
      "exam": 389,
      "▁this": 390,
      "example": 391,
      "▁stock": 392,
      "atest": 393,
      "▁feedback": 394,
      "hello": 395,
      "▁te": 396,
      "ake": 397,
      "Id": 398,
      "▁tabId": 399,
      "▁closeTab": 400,
      "▁tabId=": 401,
      "art": 402,
      "▁bbc.com": 403,
      "ubscribe": 404,
      "▁tech": 405,
      "▁by": 406,
      "▁mo": 407,
      "▁I": 408,
      "▁M": 409,
      "ine": 410,
      "bbc": 411,
      "▁A": 412,
      "onta": 413,
      "▁amount=1": 414,
      "▁find": 415,
      "ontact": 416,
      "▁C": 417,
      "ps.google": 418,
      "▁add": 419,
      "2023": 420,
      "bbc.com\"": 421,
      "ls": 422,
      "▁password": 423,
      "um": 424,
      "▁form": 425,
      "day": 426,
      "amazon": 427,
      "est": 428,
      "@example": 429,
      "1234": 430,
      "▁amazon": 431,
      "▁hit": 432,
      "amazon.com\"": 433,
      "▁P": 434,
      "▁amazon.com": 435,
      "p\"": 436,
      "▁near": 437,
      "mit": 438,
      "doe": 439,
      "▁openTab": 440,
      "▁direction=\"down": 441,
      "▁direction=\"down\"": 442,
      "ation": 443,
      "gin": 444,
      "▁step": 445,
      "▁recipes": 446,
      "feedback": 447,
      "nu": 448,
      "ts": 449,
      "teen": 450,
      "sernam": 451,
      "▁load": 452,
      "john": 453,
      "▁tabId=nu": 454,
      "▁tabId=null": 455,
      "ice": 456,
      "ote": 457,
      "▁youtube": 458,
      "▁look": 459,
      "▁L": 460,
      "▁T": 461,
      "gmail": 462,
      "youtube": 463,
      "password\"": 464,
      "▁move": 465,
      "youtube.com\"": 466,
      "▁youtube.com": 467,
      "our": 468,
      "▁cod": 469,
      "ber": 470,
      "▁field=\"password\"": 471,
      "▁code": 472,
      "ide": 473,
      "ree": 474,
      "▁flight": 475,
      "ideo": 476,
      "oc": 477,
      "earn": 478,
      "▁pages": 479,
      "▁code\"": 480,
      "▁would": 481,
      "▁email": 482,
      "nn": 483,
      "▁num": 484,
      "▁quote": 485,
      "▁number": 486,
      "▁fi": 487,
      "▁recipes\"": 488,
      "ore": 489,
      "▁U": 490,
      "▁pr": 491,
      "123\"": 492,
      "sh": 493,
      "email": 494,
      "▁button.": 495,
      "ol": 496,
      "oria": 497,
      "utoria": 498,
      "▁tutoria": 499,
      "rent": 500,
      "urrent": 501,
      "▁tr": 502,
      "ver": 503,
      "▁video": 504,
      "'s": 505,
      "▁tw": 506,
      "sl": 507,
      "ubmit": 508,
      "line": 509,
      "▁field=\"email": 510,
      "ip": 511,
      "▁subscribe": 512,
      "out": 513,
      "▁bar": 514,
      "▁best": 515,
      "▁inp": 516,
      "▁hello": 517,
      "uran": 518,
      "stauran": 519,
      "art\"": 520,
      "add": 521,
      "best": 522,
      "50": 523,
      "weather": 524,
      "▁St": 525,
      "▁over": 526,
      "▁latest": 527,
      "be\"": 528,
      "▁sign": 529,
      "nd": 530,
      "ubscribe\"": 531,
      "▁sh": 532,
      "▁now\"": 533,
      "ir": 534,
      "promo": 535,
      "▁promo": 536,
      "▁query=\"f": 537,
      "▁query=\"best": 538,
      ".doe": 539,
      "▁ma": 540,
      "▁mind": 541,
      "▁page?": 542,
      "pple": 543,
      "▁twitter": 544,
      "ast": 545,
      "▁D": 546,
      "▁query=\"flight": 547,
      "up\"": 548,
      "▁right": 549,
      "▁twitter.com": 550,
      "▁dea": 551,
      "▁field=\"email\"": 552,
      "twitter": 553,
      "▁se": 554,
      "▁restauran": 555,
      "twitter.com\"": 556,
      "ain": 557,
      "gan": 558,
      "ore\"": 559,
      "vegan": 560,
      "▁address": 561,
      "▁quotes": 562,
      "▁forec": 563,
      "▁forecast": 564,
      "▁today": 565,
      "▁index=1": 566,
      "▁four": 567,
      "▁query=\"weather": 568,
      "▁com": 569,
      "▁text=\"L": 570,
      "lay": 571,
      "▁pasta": 572,
      "▁how": 573,
      "▁direction=\"up\"": 574,
      "▁box\"": 575,
      "th": 576,
      "▁Par": 577,
      "ven": 578,
      "▁url=\"https://www.bbc.com\"": 579,
      "▁field=\"promo": 580,
      "ik": 581,
      "▁g": 582,
      "lef": 583,
      "▁comment": 584,
      "!\"": 585,
      "vie": 586,
      "▁current": 587,
      "comment": 588,
      "▁headline": 589,
      "▁restaurants": 590,
      "▁play": 591,
      "▁direction=\"right": 592,
      "▁direction=\"right\"": 593,
      "▁field=\"comment": 594,
      "maps.google": 595,
      "▁of": 596,
      "▁url=\"https://www.amazon.com\"": 597,
      "maps.google.com\"": 598,
      "zip": 599,
      "lian": 600,
      "talian": 601,
      "john.doe": 602,
      "▁ser": 603,
      "ps.google.com": 604,
      "▁maps.google.com": 605,
      "▁serv": 606,
      "▁px": 607,
      "▁login": 608,
      "2023\"": 609,
      "fre": 610,
      "ome": 611,
      "▁deals": 612,
      "▁field=\"feedback": 613,
      "atch": 614,
      "@example.com": 615,
      "@example.com\"": 616,
      "ocol": 617,
      "fresh": 618,
      "ocolate": 619,
      "▁refresh": 620,
      "▁Apple": 621,
      "orld": 622,
      "▁field=\"s": 623,
      "▁tutorials": 624,
      "as": 625,
      "▁query=\"s": 626,
      "mes": 627,
      "▁Main": 628,
      "▁form\"": 629,
      "sername": 630,
      "▁query=\"stock": 631,
      "latest": 632,
      "▁In": 633,
      "pp": 634,
      "▁text=\"sign": 635,
      "date": 636,
      "▁J": 637,
      "▁us": 638,
      "▁2": 639,
      "heck": 640,
      "▁sec": 641,
      "▁sho": 642,
      "▁cart": 643,
      "gmail.com": 644,
      "row": 645,
      "▁url=\"https://www.youtube.com\"": 646,
      "▁update": 647,
      "s.google": 648,
      "ansl": 649,
      "▁query=\"latest": 650,
      "▁url=\"https://maps.google.com\"": 651,
      "▁York\"": 652,
      "▁text=\"Sign": 653,
      "ff": 654,
      "iz": 655,
      "read": 656,
      "za": 657,
      "▁input": 658,
      "izza": 659,
      "▁username": 660,
      "▁field=\"add": 661,
      "▁field=\"address": 662,
      "▁F": 663,
      "▁text=\"hello": 664,
      "ane": 665,
      "▁field=\"u": 666,
      "times": 667,
      "elcom": 668,
      "▁flights": 669,
      "▁price": 670,
      "▁field=\"address\"": 671,
      "▁query=\"h": 672,
      "▁query=\"to": 673,
      "sername\"": 674,
      "▁W": 675,
      "▁Italian": 676,
      "▁service": 677,
      "▁text=\"C": 678,
      ".or": 679,
      "▁more": 680,
      "12345": 681,
      "▁field=\"username\"": 682,
      "elcome": 683,
      ".org": 684,
      "ond": 685,
      "▁chocolate": 686,
      "▁query=\"how": 687,
      "Hel": 688,
      "ic": 689,
      "▁text=\"p": 690,
      "▁text=\"lo": 691,
      "gmail.com\"": 692,
      "by": 693,
      "arke": 694,
      "ytimes": 695,
      "▁text=\"A": 696,
      "▁top": 697,
      "Hello": 698,
      "arket": 699,
      "dia": 700,
      "▁is": 701,
      "▁contact": 702,
      "▁text=\"c": 703,
      "▁text=\"feedback": 704,
      "ipedia": 705,
      "▁Do": 706,
      "ikipedia": 707,
      "et": 708,
      "▁en": 709,
      "▁market": 710,
      "▁steps?": 711,
      "▁headlines": 712,
      "▁field=\"search": 713,
      "ikipedia.org": 714,
      "tech": 715,
      "ated": 716,
      "anslation": 717,
      "ffee": 718,
      "▁vegan": 719,
      "▁Now": 720,
      "lay\"": 721,
      "▁your": 722,
      "▁text=\"subscribe\"": 723,
      "cnn": 724,
      "▁ab": 725,
      "▁cake": 726,
      "▁check": 727,
      "▁please.": 728,
      "▁url=\"https://bbc.com\"": 729,
      "▁bar\"": 730,
      "cnn.com\"": 731,
      "▁from": 732,
      "▁Stree": 733,
      "age": 734,
      "▁cnn": 735,
      "▁pizza": 736,
      "▁me\"": 737,
      "asa": 738,
      "▁cnn.com": 739,
      "ls\"": 740,
      "yo": 741,
      "▁six": 742,
      "ance": 743,
      "▁thir": 744,
      "okyo": 745,
      "▁text=\"Add": 746,
      "▁B": 747,
      "▁st": 748,
      "▁text=\"J": 749,
      "ity": 750,
      "▁Tokyo": 751,
      "▁text=\"login": 752,
      "uy": 753,
      "▁ad": 754,
      "get": 755,
      "500": 756,
      "▁text=\"P": 757,
      "▁page,": 758,
      "▁link.": 759,
      "▁text=\"login\"": 760,
      "gn": 761,
      "▁3": 762,
      "one": 763,
      "▁at": 764,
      "▁world": 765,
      "▁coffee": 766,
      "▁Cart\"": 767,
      "asagn": 768,
      "asagna": 769,
      "▁de": 770,
      "ked": 771,
      "▁about": 772,
      "vance": 773,
      "▁make": 774,
      "▁url=\"https://twitter.com\"": 775,
      "▁home": 776,
      "ame": 777,
      "▁enter": 778,
      "▁advance": 779,
      "ure": 780,
      "▁E": 781,
      "▁more\"": 782,
      "anc": 783,
      "▁lasagna": 784,
      "▁chat": 785,
      "▁step?": 786,
      "▁pages?": 787,
      "▁j": 788,
      "▁one": 789,
      "▁news\"": 790,
      "▁query=\"tech": 791,
      "▁field=\"ch": 792,
      "▁fif": 793,
      "▁query=\"top": 794,
      "200": 795,
      "hone": 796,
      "▁my": 797,
      "▁url=\"https://amazon.com\"": 798,
      "▁Paris": 799,
      "al": 800,
      "▁in\"": 801,
      "▁box.": 802,
      "▁text=\"Subscribe\"": 803,
      "▁nearby": 804,
      "▁field=\"chat": 805,
      "600": 806,
      "▁nine": 807,
      "▁us\"": 808,
      "lect": 809,
      "▁learn": 810,
      "▁directions": 811,
      "▁three": 812,
      "▁eight": 813,
      "▁five": 814,
      "▁two": 815,
      "▁query=\"flights": 816,
      "▁seven": 817,
      "tr": 818,
      "▁download": 819,
      "400": 820,
      "700": 821,
      "800": 822,
      "900": 823,
      "esl": 824,
      "ut\"": 825,
      "▁ten": 826,
      "▁submit": 827,
      "▁query=\"c": 828,
      "▁url=\"https://youtube.com\"": 829,
      "▁shops": 830,
      "esla": 831,
      "ick": 832,
      "new": 833,
      "▁i": 834,
      "▁name": 835,
      "▁input\"": 836,
      "kedin": 837,
      "▁lef": 838,
      "▁zip": 839,
      "ubj": 840,
      "eet": 841,
      "▁direction=\"lef": 842,
      "app": 843,
      "▁index=2": 844,
      "name\"": 845,
      "▁left": 846,
      "▁direction=\"left\"": 847,
      "us": 848,
      "▁john.doe": 849,
      "▁field=\"name\"": 850,
      "▁doc": 851,
      "let": 852,
      "view": 853,
      "ent": 854,
      "ook": 855,
      "pan": 856,
      "ram": 857,
      "▁hel": 858,
      "▁cart\"": 859,
      "ssage": 860,
      "leven": 861,
      "elve": 862,
      "▁eleven": 863,
      "▁twelve": 864,
      "▁fourteen": 865,
      "▁text=\"contact": 866,
      "▁thirteen": 867,
      "▁fifteen": 868,
      "reat": 869,
      "nch": 870,
      "od": 871,
      "ption": 872,
      "▁gmail.com": 873,
      "low": 874,
      "▁app": 875,
      "▁field=\"zip": 876,
      "▁option": 877,
      "▁prices": 878,
      "appy": 879,
      "ace": 880,
      "is\"": 881,
      "▁text=\"m": 882,
      "▁text=\"john.doe": 883,
      "▁recipe\"": 884,
      "password123\"": 885,
      "▁More\"": 886,
      "▁Us\"": 887,
      "▁text=\"Contact": 888,
      "Pa": 889,
      "▁text=\"W": 890,
      "▁Sign": 891,
      "mith": 892,
      "▁Tesla": 893,
      "▁select": 894,
      "▁text=\"Log": 895,
      "▁text=\"D": 896,
      "▁text=\"add": 897,
      "▁url=\"https://www.cnn.com\"": 898,
      "▁me.": 899,
      "▁movie": 900,
      "55": 901,
      "lm": 902,
      "▁ex": 903,
      "▁con": 904,
      "▁steps=2": 905,
      "▁steps=3": 906,
      "▁steps=4": 907,
      "▁steps=5": 908,
      "▁steps=6": 909,
      "▁steps=7": 910,
      "▁steps=8": 911,
      "▁steps=9": 912,
      "load\"": 913,
      "▁steps=10": 914,
      "▁steps=11": 915,
      "▁steps=12": 916,
      "▁steps=13": 917,
      "▁steps=14": 918,
      "▁steps=15": 919,
      "ubmit\"": 920,
      "▁Paris\"": 921,
      "▁Elm": 922,
      "300": 923,
      "s.": 924,
      "▁next": 925,
      "▁query=\"vegan": 926,
      "▁10": 927,
      "johndoe": 928,
      "▁Now\"": 929,
      "▁help": 930,
      "▁that": 931,
      "irth": 932,
      "irthday": 933,
      "▁wit": 934,
      "▁text=\"down": 935,
      "000": 936,
      "irections\"": 937,
      "▁with": 938,
      "ect": 939,
      "iated": 940,
      "▁20": 941,
      "orrow": 942,
      "omorrow": 943,
      "▁text=\"se": 944,
      "reciated": 945,
      "▁In\"": 946,
      "ondon": 947,
      "▁appreciated": 948,
      "cs.google": 949,
      "ite": 950,
      "▁read": 951,
      "▁brow": 952,
      "▁tab?": 953,
      "docs.google": 954,
      "▁John": 955,
      "s.google.com": 956,
      "▁docs.google.com": 957,
      "docs.google.com\"": 958,
      "ac": 959,
      "book": 960,
      "cal": 961,
      "oin": 962,
      "▁tie": 963,
      "eas": 964,
      "▁and": 965,
      "▁City": 966,
      "▁text=\"play\"": 967,
      "▁start": 968,
      "nytimes": 969,
      "▁tomorrow": 970,
      "▁su": 971,
      "▁sta": 972,
      "▁text=\"j": 973,
      "▁query=\"tr": 974,
      "▁we": 975,
      "▁url=\"https://www.twitter.com\"": 976,
      "▁up\"": 977,
      "▁London": 978,
      "▁text=\"my": 979,
      "nytimes.com\"": 980,
      "gis": 981,
      "lin": 982,
      "ner": 983,
      "▁1234": 984,
      "▁text=\"1234": 985,
      "ish": 986,
      "▁buy": 987,
      "▁tutorials\"": 988,
      "▁section": 989,
      "gister": 990,
      "p://": 991,
      "▁123": 992,
      "▁field.": 993,
      "ank": 994,
      "▁url=\"http://": 995,
      "▁More": 996,
      "▁text=\"Learn": 997,
      "▁query=\"current": 998,
      "▁browser": 999,
      "ail": 1000,
      "▁Hello": 1001,
      "page": 1002,
      "ollow": 1003,
      "▁translation": 1004,
      "▁homepage": 1005,
      "▁stat": 1006,
      "@gmail.com": 1007,
      "@gmail.com\"": 1008,
      "up": 1009,
      "wikipedia.org": 1010,
      "▁7": 1011,
      "▁text=\"123": 1012,
      "▁text=\"Hello": 1013,
      "isc": 1014,
      "▁Span": 1015,
      "▁message": 1016,
      "▁Up\"": 1017,
      "▁gad": 1018,
      "▁Doe": 1019,
      "▁Doe\"": 1020,
      "wikipedia.org\"": 1021,
      "▁Spanish": 1022,
      "phone": 1023,
      "out\"": 1024,
      "▁St\"": 1025,
      "▁Add": 1026,
      "▁text=\"John": 1027,
      "10": 1028,
      "100": 1029,
      "▁12345": 1030,
      "▁text=\"l": 1031,
      "▁text=\"w": 1032,
      "▁cook": 1033,
      "▁Cart": 1034,
      "▁trail": 1035,
      "▁today\"": 1036,
      "easy": 1037,
      "▁status": 1038,
      "sp": 1039,
      "▁G": 1040,
      "▁nytimes": 1041,
      "▁text=\"b": 1042,
      "▁query=\"ch": 1043,
      "▁url=\"https://docs.google.com\"": 1044,
      "▁wikipedia.org": 1045,
      "▁review": 1046,
      "ays": 1047,
      "▁me?": 1048,
      "▁nytimes.com": 1049,
      "rea": 1050,
      "▁2023": 1051,
      "▁2023\"": 1052,
      "▁ca": 1053,
      "▁text=\"12345": 1054,
      "▁you?": 1055,
      "▁please?": 1056,
      "▁watch": 1057,
      "ial": 1058,
      "▁quotes\"": 1059,
      "▁updates": 1060,
      "▁Street": 1061,
      "▁Street\"": 1062,
      "urePa": 1063,
      "▁take": 1064,
      "▁says": 1065,
      "ith": 1066,
      "▁lap": 1067,
      "acebook": 1068,
      "▁query=\"translation": 1069,
      "▁text=\"buy": 1070,
      "▁lapto": 1071,
      "hat": 1072,
      "tin": 1073,
      "rench": 1074,
      "end": 1075,
      "▁password123": 1076,
      "▁video\"": 1077,
      "▁today's": 1078,
      "tinu": 1079,
      "che": 1080,
      "ret": 1081,
      "▁text=\"password123\"": 1082,
      "▁url=\"https://www.nytimes.com\"": 1083,
      "▁Subscribe": 1084,
      "▁recipes.": 1085,
      "▁French": 1086,
      "▁Tokyo\"": 1087,
      "▁john.doe@example.com": 1088,
      "▁text=\"john.doe@example.com\"": 1089,
      "▁text=\"learn": 1090,
      "ithub": 1091,
      "▁let": 1092,
      "eap": 1093,
      "▁text=\"B": 1094,
      "▁amount=200": 1095,
      "tail": 1096,
      "▁Learn": 1097,
      "▁Up": 1098,
      "▁Apple\"": 1099,
      "▁World": 1100,
      "▁checkout": 1101,
      "acation": 1102,
      "spn": 1103,
      "▁text=\"d": 1104,
      "▁going": 1105,
      "▁password.": 1106,
      "linkedin": 1107,
      "gram": 1108,
      "ke\"": 1109,
      "oon": 1110,
      "ranc": 1111,
      "▁5": 1112,
      "ination": 1113,
      "avel": 1114,
      "▁meet": 1115,
      "▁online": 1116,
      "▁San": 1117,
      "stagram": 1118,
      "▁Contact": 1119,
      "day's": 1120,
      "▁LA": 1121,
      "▁twent": 1122,
      "iking": 1123,
      "▁headlines\"": 1124,
      "▁Franc": 1125,
      "▁web": 1126,
      "isco": 1127,
      "linkedin.com\"": 1128,
      "▁twenty": 1129,
      "▁Francisco": 1130,
      "pl": 1131,
      "po": 1132,
      "▁out": 1133,
      "rend": 1134,
      "▁text=\"R": 1135,
      "▁query=\"recipe": 1136,
      "▁hiking": 1137,
      "vent": 1138,
      "▁amount=7": 1139,
      "▁text=\"submit\"": 1140,
      "▁chan": 1141,
      "shi": 1142,
      "▁text=\"Play\"": 1143,
      "▁text=\"download\"": 1144,
      "rated": 1145,
      "in\"": 1146,
      "ouT": 1147,
      "coming": 1148,
      "lic": 1149,
      "▁text=\"G": 1150,
      "▁text=\"T": 1151,
      "▁bake": 1152,
      "ater": 1153,
      "▁amount=2": 1154,
      "▁YouT": 1155,
      "▁text=\"subscribe": 1156,
      "ect\"": 1157,
      "▁Us": 1158,
      "▁address.": 1159,
      "ancake": 1160,
      "fli": 1161,
      "mart": 1162,
      "▁trend": 1163,
      "iew": 1164,
      "▁code.": 1165,
      "ice\"": 1166,
      "etfli": 1167,
      "▁world\"": 1168,
      "ubject": 1169,
      "ubject\"": 1170,
      "▁let's": 1171,
      "etflix": 1172,
      "-rated": 1173,
      "210": 1174,
      "hank": 1175,
      "ist": 1176,
      "no": 1177,
      "yth": 1178,
      "▁H": 1179,
      "▁li": 1180,
      "▁smart": 1181,
      "▁pancake": 1182,
      "ssword123": 1183,
      "▁NY": 1184,
      "▁prod": 1185,
      "▁Welcome": 1186,
      "▁text=\"Welcome": 1187,
      "▁text=\"12345\"": 1188,
      "ython": 1189,
      "▁produ": 1190,
      "▁9": 1191,
      "▁some": 1192,
      "▁text=\"N": 1193,
      "▁dest": 1194,
      "▁news.": 1195,
      "▁detail": 1196,
      "▁destination": 1197,
      "ale": 1198,
      "ele": 1199,
      "iou": 1200,
      "smith": 1201,
      "▁johndoe": 1202,
      "▁send": 1203,
      "inner": 1204,
      "▁searching": 1205,
      "▁ac": 1206,
      "▁dinner": 1207,
      "▁tab,": 1208,
      "▁what": 1209,
      "▁linkedin": 1210,
      "▁text=\"play": 1211,
      "▁text=\"Down": 1212,
      "▁sushi": 1213,
      "▁YouTube": 1214,
      "▁smartphone": 1215,
      "▁linkedin.com": 1216,
      "▁free": 1217,
      "rest": 1218,
      "▁text=\"h": 1219,
      "▁text=\"st": 1220,
      "gets": 1221,
      "▁second": 1222,
      "▁gadgets": 1223,
      "▁text=\"watch": 1224,
      "▁trails": 1225,
      "ious": 1226,
      "24": 1227,
      "ian": 1228,
      "▁our": 1229,
      "▁ti": 1230,
      "▁text=\"read": 1231,
      "▁be": 1232,
      "▁query=\"n": 1233,
      "▁query=\"new": 1234,
      "▁Smith": 1235,
      "▁local": 1236,
      "▁sign-": 1237,
      "▁great": 1238,
      "▁text=\"sec": 1239,
      "urePass": 1240,
      "▁V": 1241,
      "▁subject": 1242,
      "ontinu": 1243,
      "ext\"": 1244,
      "▁text=\"johndoe": 1245,
      "▁url=\"https://www.wikipedia.org\"": 1246,
      "▁travel": 1247,
      "▁forecast\"": 1248,
      "▁updates\"": 1249,
      "▁query=\"today's": 1250,
      "▁jane": 1251,
      "▁text=\"Login\"": 1252,
      "▁appreciated\"": 1253,
      "▁text=\"jane": 1254,
      "Italian": 1255,
      "ort": 1256,
      "ted": 1257,
      "▁text=\"n": 1258,
      "▁there": 1259,
      "arian": 1260,
      "▁query=\"Italian": 1261,
      "▁url=\"amazon.com\"": 1262,
      "veget": 1263,
      "▁url=\"https://www.gmail.com\"": 1264,
      "▁youtube.com?": 1265,
      "▁field=\"subject\"": 1266,
      "pping": 1267,
      "▁input.": 1268,
      "▁Tesla\"": 1269,
      "▁movies": 1270,
      "555": 1271,
      "▁expl": 1272,
      "▁City\"": 1273,
      "▁cookie": 1274,
      "▁text=\"directions\"": 1275,
      "▁product": 1276,
      "vegetarian": 1277,
      "site": 1278,
      "▁ar": 1279,
      "▁crea": 1280,
      "▁text=\"9": 1281,
      "▁text=\"che": 1282,
      "ave": 1283,
      "▁url=\"bbc.com\"": 1284,
      "▁opening": 1285,
      "▁view": 1286,
      "▁amount=100": 1287,
      "▁youtube.com.": 1288,
      "▁deals\"": 1289,
      "▁service\"": 1290,
      "▁text=\"Watch": 1291,
      "▁text=\"Directions\"": 1292,
      "▁query=\"recipes": 1293,
      "▁like": 1294,
      "▁create": 1295,
      "▁text=\"check": 1296,
      "FF": 1297,
      "OFF": 1298,
      "ly": 1299,
      "ming": 1300,
      "rd": 1301,
      "▁50": 1302,
      "earby": 1303,
      "log": 1304,
      "local": 1305,
      "abele": 1306,
      "▁query=\"local": 1307,
      "▁labele": 1308,
      "▁amount=500": 1309,
      "ogram": 1310,
      "▁index=5": 1311,
      "▁chip": 1312,
      "▁PM": 1313,
      "▁fill": 1314,
      "▁program": 1315,
      "▁trial": 1316,
      "▁hello@example.com": 1317,
      "▁shopping": 1318,
      "▁text=\"hello@example.com\"": 1319,
      "▁Birthday": 1320,
      "news\"": 1321,
      "▁laptops": 1322,
      "▁text=\"Buy": 1323,
      "licious": 1324,
      "▁query=\"nearby": 1325,
      "▁text=\"checkout\"": 1326,
      "▁labeled": 1327,
      "▁programming": 1328,
      "lease": 1329,
      "os": 1330,
      "▁amount=300": 1331,
      "▁now.": 1332,
      "▁15": 1333,
      "password123": 1334,
      "▁text=\"Submit\"": 1335,
      "▁amazon.com.": 1336,
      "▁25": 1337,
      "▁nearby\"": 1338,
      "▁London\"": 1339,
      "ollow\"": 1340,
      "▁text=\"Read": 1341,
      "▁change": 1342,
      "0210": 1343,
      "87": 1344,
      "bbc.com": 1345,
      "mer": 1346,
      "unch": 1347,
      "▁R": 1348,
      "▁easy": 1349,
      "▁bread": 1350,
      "▁inf": 1351,
      "arted": 1352,
      "▁are": 1353,
      "▁query=\"easy": 1354,
      "▁plan": 1355,
      "world": 1356,
      "▁event": 1357,
      "▁book": 1358,
      "▁York.": 1359,
      "▁bbc.com?": 1360,
      "▁An": 1361,
      "ummer": 1362,
      "1234\"": 1363,
      "▁Python": 1364,
      "▁amazon.com?": 1365,
      "▁email.": 1366,
      "nny": 1367,
      "pport": 1368,
      "▁Jane": 1369,
      "et's": 1370,
      "▁text=\"Jane": 1371,
      "icken": 1372,
      "▁john.doe@gmail.com": 1373,
      "▁text=\"john.doe@gmail.com\"": 1374,
      "▁2024": 1375,
      "▁text=\"send": 1376,
      "▁cake\"": 1377,
      "▁NYC": 1378,
      "▁begin": 1379,
      "▁query=\"news": 1380,
      "bbc.com/": 1381,
      "gh": 1382,
      "github": 1383,
      "terest": 1384,
      "pec": 1385,
      "ough": 1386,
      "▁text=\"f": 1387,
      "▁query=\"A": 1388,
      "▁url=\"youtube.com\"": 1389,
      "▁index=0": 1390,
      "▁index=4": 1391,
      "▁index=6": 1392,
      "▁text=\"submit": 1393,
      "▁amount=150": 1394,
      "▁amount=1000": 1395,
      "▁form.": 1396,
      "▁tomorrow\"": 1397,
      "▁text=\"Hello,": 1398,
      "▁website": 1399,
      "▁acti": 1400,
      "github.com\"": 1401,
      "65": 1402,
      "BC": 1403,
      "Do": 1404,
      "dough": 1405,
      "king": 1406,
      "rst": 1407,
      "ul": 1408,
      "▁get": 1409,
      "▁sour": 1410,
      "▁follow": 1411,
      "interest": 1412,
      "▁po": 1413,
      "▁pie": 1414,
      "▁text=\"hel": 1415,
      "▁clicking": 1416,
      "sec": 1417,
      "▁query=\"re": 1418,
      "▁place": 1419,
      "gele": 1420,
      "▁later": 1421,
      "▁register": 1422,
      "▁page.": 1423,
      "▁url=\"https://www.linkedin.com\"": 1424,
      "ssword123\"": 1425,
      "ecurePass": 1426,
      "▁text=\"Subscribe": 1427,
      "▁tabId=2": 1428,
      "▁tabId=3": 1429,
      "▁ID": 1430,
      "▁first": 1431,
      "▁videos": 1432,
      "▁shut": 1433,
      "▁Inc": 1434,
      "▁username.": 1435,
      "eeting": 1436,
      "▁text=\"download": 1437,
      "▁Hello,": 1438,
      "▁text=\"Great": 1439,
      "nolog": 1440,
      "▁text=\"New": 1441,
      "▁what's": 1442,
      "▁text=\"Download\"": 1443,
      "▁sign-up": 1444,
      "▁Angele": 1445,
      "▁sourdough": 1446,
      "nology": 1447,
      "30": 1448,
      "espn": 1449,
      "ory": 1450,
      "▁text=\"H": 1451,
      "▁text=\"re": 1452,
      "▁br": 1453,
      "▁birthday": 1454,
      "▁url=\"maps.google.com\"": 1455,
      "llent": 1456,
      "▁field=\"c": 1457,
      "▁happy": 1458,
      "▁welcome": 1459,
      "▁Submit": 1460,
      "▁espn": 1461,
      "cellent": 1462,
      "▁log": 1463,
      "▁cheap": 1464,
      "▁bbc.com.": 1465,
      "▁amount=1500": 1466,
      "▁amazon.com,": 1467,
      "▁Los": 1468,
      "▁show": 1469,
      "▁gu": 1470,
      "▁service!\"": 1471,
      "▁excellent": 1472,
      "gister\"": 1473,
      "▁Spanish\"": 1474,
      "▁query=\"cheap": 1475,
      "▁French\"": 1476,
      "▁text=\"happy": 1477,
      "▁text=\"next\"": 1478,
      "bbc.com/news\"": 1479,
      "Doe": 1480,
      "espn.com\"": 1481,
      "▁espn.com": 1482,
      ".smith": 1483,
      "45": 1484,
      "@com": 1485,
      "o\"": 1486,
      "ove": 1487,
      "ry": 1488,
      "▁example": 1489,
      "▁ter": 1490,
      "▁tick": 1491,
      "▁soon": 1492,
      "▁facebook": 1493,
      "per": 1494,
      "▁noon": 1495,
      "▁text=\"example": 1496,
      "▁vacation": 1497,
      "▁index=3": 1498,
      "▁index=7": 1499,
      "▁1600": 1500,
      "▁newslet": 1501,
      "▁feedback\"": 1502,
      "▁technology": 1503,
      "▁Amazon": 1504,
      "weather.com\"": 1505,
      "ndar": 1506,
      "▁github": 1507,
      "anslate": 1508,
      "▁text=\"Check": 1509,
      "▁text=\"feedback\"": 1510,
      "▁third": 1511,
      "▁shops\"": 1512,
      "pany": 1513,
      "▁Go": 1514,
      "▁amount=750": 1515,
      "▁text=\"start": 1516,
      "▁Video": 1517,
      "555-": 1518,
      "▁explore": 1519,
      "8765": 1520,
      "▁query=\"restauran": 1521,
      "▁places": 1522,
      "456": 1523,
      "@company": 1524,
      "▁term": 1525,
      "▁newsletter": 1526,
      "▁github.com": 1527,
      "assword123": 1528,
      "ft": 1529,
      "facebook": 1530,
      "▁k": 1531,
      "▁he": 1532,
      "▁it": 1533,
      "▁ic": 1534,
      "▁500": 1535,
      "▁600": 1536,
      "▁400": 1537,
      "▁700": 1538,
      "▁800": 1539,
      "▁900": 1540,
      "▁cur": 1541,
      "instagram": 1542,
      "▁text=\"M": 1543,
      "▁text=\"john": 1544,
      "▁text=\"promo": 1545,
      "▁text=\"view": 1546,
      "▁instagram": 1547,
      "▁query=\"up": 1548,
      "▁upcoming": 1549,
      "▁amount=5": 1550,
      "▁amount=20": 1551,
      "▁amount=50": 1552,
      "▁amount=600": 1553,
      "▁amount=400": 1554,
      "▁amount=700": 1555,
      "▁amount=800": 1556,
      "▁amount=900": 1557,
      "▁amount=30": 1558,
      "▁text=\"su": 1559,
      "▁100": 1560,
      "▁150": 1561,
      "▁1500": 1562,
      "▁1200": 1563,
      "▁1400": 1564,
      "▁1700": 1565,
      "▁1800": 1566,
      "▁1900": 1567,
      "▁1300": 1568,
      "▁1000": 1569,
      "▁1100": 1570,
      "▁weather.com": 1571,
      "▁amount=10": 1572,
      "▁amount=15": 1573,
      "▁amount=1200": 1574,
      "▁amount=1600": 1575,
      "▁amount=1400": 1576,
      "▁amount=1700": 1577,
      "▁amount=1800": 1578,
      "▁amount=1900": 1579,
      "▁amount=1300": 1580,
      "▁amount=1100": 1581,
      "▁text=\"sign-": 1582,
      "▁200": 1583,
      "▁250": 1584,
      "▁2000": 1585,
      "▁Watch": 1586,
      "▁30": 1587,
      "▁300": 1588,
      "▁75": 1589,
      "▁750": 1590,
      "▁gadget": 1591,
      "▁query=\"chocolate": 1592,
      "▁you?\"": 1593,
      "▁laptop": 1594,
      "▁amount=2000": 1595,
      "▁Francisco\"": 1596,
      "▁amount=75": 1597,
      "▁amount=25": 1598,
      "▁amount=250": 1599,
      "▁destinations": 1600,
      "ontinue\"": 1601,
      "▁query=\"Apple": 1602,
      "▁facebook.com": 1603,
      "▁text=\"Checkout\"": 1604,
      "facebook.com\"": 1605,
      "▁here": 1606,
      "▁icon": 1607,
      "instagram.com\"": 1608,
      "▁instagram.com": 1609,
      "▁query=\"upcoming": 1610,
      "%OFF": 1611,
      "78": 1612,
      "_doe": 1613,
      "ets": 1614,
      "fe": 1615,
      "▁r": 1616,
      "▁site": 1617,
      "ord": 1618,
      "▁netflix": 1619,
      "earch\"": 1620,
      "▁apple": 1621,
      "▁query=\"p": 1622,
      "▁la": 1623,
      "doe\"": 1624,
      "▁Thank": 1625,
      "▁number\"": 1626,
      "▁Down": 1627,
      "▁top-rated": 1628,
      "▁lasagna\"": 1629,
      "▁join": 1630,
      "▁query=\"top-rated": 1631,
      "▁id": 1632,
      "▁online.": 1633,
      "pose": 1634,
      "▁text=\"Thank": 1635,
      "▁details": 1636,
      "▁Inc.": 1637,
      "▁tickets": 1638,
      "▁curry": 1639,
      "▁netflix.com": 1640,
      "netflix": 1641,
      "▁phone": 1642,
      "▁text=\"F": 1643,
      "▁text=\"ab": 1644,
      "erts": 1645,
      "▁navigat": 1646,
      "▁url=\"twitter.com\"": 1647,
      "▁field=\"phone": 1648,
      "▁steps,": 1649,
      "▁hist": 1650,
      "▁button?": 1651,
      "▁reg": 1652,
      "▁url=\"https://www.bbc.com/news\"": 1653,
      "ing\"": 1654,
      "▁chicken": 1655,
      "▁step,": 1656,
      "▁try": 1657,
      "▁hello123": 1658,
      "▁promo2023": 1659,
      "▁restaurant": 1660,
      "▁today.": 1661,
      "▁maps.google.com?": 1662,
      "▁prices\"": 1663,
      "▁text=\"log": 1664,
      "▁headlines.": 1665,
      "▁Buy": 1666,
      "▁option.": 1667,
      "▁text=\"join": 1668,
      "▁section.": 1669,
      "▁text=\"welcome": 1670,
      "▁area": 1671,
      "▁text=\"follow\"": 1672,
      "▁text=\"help\"": 1673,
      "▁query=\"restaurants": 1674,
      "▁text=\"promo2023\"": 1675,
      "▁gadgets\"": 1676,
      "▁Download": 1677,
      "netflix.com\"": 1678,
      "▁navigating": 1679,
      "▁history": 1680,
      "0rd": 1681,
      "ah": 1682,
      "dy": 1683,
      "jo": 1684,
      "oo": 1685,
      "pul": 1686,
      "w0rd": 1687,
      "▁vegetarian": 1688,
      "▁tea": 1689,
      "lice": 1690,
      "like\"": 1691,
      "made": 1692,
      "▁was": 1693,
      "▁release": 1694,
      "▁body": 1695,
      "▁text=\"search\"": 1696,
      "▁this?": 1697,
      "▁AA": 1698,
      "ation\"": 1699,
      "▁Log": 1700,
      "▁Later": 1701,
      "▁pro": 1702,
      "▁address\"": 1703,
      "▁pasta\"": 1704,
      "▁maps.google.com.": 1705,
      "▁Apple.": 1706,
      "▁updates.": 1707,
      "▁service!": 1708,
      "▁dess": 1709,
      "▁En": 1710,
      "usic": 1711,
      "▁translations": 1712,
      "▁message\"": 1713,
      "▁reviews": 1714,
      "ched": 1715,
      "▁details\"": 1716,
      "▁Smith\"": 1717,
      "▁Video\"": 1718,
      "pular": 1719,
      "▁team": 1720,
      "fy": 1721,
      "gu": 1722,
      "ion": 1723,
      "ong": 1724,
      "▁text=\"a": 1725,
      "▁text=\"v": 1726,
      "▁text=\"de": 1727,
      "ert": 1728,
      "▁as": 1729,
      "▁music": 1730,
      "▁field=\"me": 1731,
      "▁url=\"https://cnn.com\"": 1732,
      "tify": 1733,
      "▁wee": 1734,
      "▁url=\"https://www.espn.com\"": 1735,
      "▁heading": 1736,
      "pass": 1737,
      ".google.com\"": 1738,
      "▁bbc.com,": 1739,
      "ump": 1740,
      "▁twitter.com.": 1741,
      "▁Feedback": 1742,
      "▁text=\"hello123\"": 1743,
      "▁started": 1744,
      "▁homemade": 1745,
      "▁continu": 1746,
      "line\"": 1747,
      "▁Great": 1748,
      "reaking": 1749,
      "▁jane.doe": 1750,
      "secret": 1751,
      "▁Angeles": 1752,
      "▁Google": 1753,
      "joy": 1754,
      "▁field=\"message": 1755,
      "▁continue": 1756,
      "Phone": 1757,
      "Scri": 1758,
      "aScri": 1759,
      "br": 1760,
      "birthday": 1761,
      "dit": 1762,
      "iv": 1763,
      "las": 1764,
      "nel": 1765,
      "ning": 1766,
      "oli": 1767,
      "ra": 1768,
      "ule": 1769,
      "ument": 1770,
      "ush": 1771,
      "very": 1772,
      "▁clas": 1773,
      "chine": 1774,
      "▁push": 1775,
      "hen": 1776,
      "comme": 1777,
      "▁text=\"like\"": 1778,
      "er\"": 1779,
      "itar": 1780,
      "avaScri": 1781,
      "▁ass": 1782,
      "▁query=\"vegetarian": 1783,
      "▁day": 1784,
      "▁url=\"https://gmail.com\"": 1785,
      "▁when": 1786,
      "▁rem": 1787,
      "▁recomme": 1788,
      "123!\"": 1789,
      "velo": 1790,
      "ddit": 1791,
      "▁index=8": 1792,
      "▁index=9": 1793,
      "▁index=23": 1794,
      "▁index=20": 1795,
      "▁weather\"": 1796,
      "▁AI": 1797,
      "▁Password123": 1798,
      "▁recipes?": 1799,
      "▁tutorial": 1800,
      "▁bar.": 1801,
      "ndation": 1802,
      "▁machine": 1803,
      "▁today?": 1804,
      "▁index=10": 1805,
      "▁index=11": 1806,
      "▁index=12": 1807,
      "▁index=13": 1808,
      "▁index=14": 1809,
      "▁index=15": 1810,
      "▁index=16": 1811,
      "▁index=17": 1812,
      "▁index=18": 1813,
      "▁index=19": 1814,
      "▁secret": 1815,
      "▁shop": 1816,
      "▁sixth": 1817,
      "▁Best": 1818,
      "▁BBC": 1819,
      "▁delicious": 1820,
      "▁develo": 1821,
      "▁Paris.": 1822,
      "▁iPhone": 1823,
      "▁index=21": 1824,
      "▁index=22": 1825,
      "▁index=24": 1826,
      "▁document": 1827,
      "▁conc": 1828,
      "▁query=\"translations": 1829,
      "▁text=\"Best": 1830,
      "▁World\"": 1831,
      "▁channel": 1832,
      "▁trending": 1833,
      "▁Happy": 1834,
      "▁tips": 1835,
      "▁text=\"jane.doe": 1836,
      "▁PM\"": 1837,
      "▁trial\"": 1838,
      "pecial": 1839,
      "▁text=\"Happy": 1840,
      "▁guitar": 1841,
      "▁text=\"sign-up\"": 1842,
      "▁launch": 1843,
      "▁regard": 1844,
      "▁Eng": 1845,
      "chedule": 1846,
      "▁text=\"vacation": 1847,
      "oliday": 1848,
      "▁classe": 1849,
      "avaScrip": 1850,
      "▁assist": 1851,
      "▁recommendation": 1852,
      "his": 1853,
      "ob": 1854,
      "’s": 1855,
      "▁y": 1856,
      "▁sc": 1857,
      "▁sp": 1858,
      "▁cat": 1859,
      "orning": 1860,
      "tem": 1861,
      "ome\"": 1862,
      "▁text=\"tech": 1863,
      "ers": 1864,
      "▁url=\"gmail.com\"": 1865,
      "▁field\"": 1866,
      "▁url=\"https://mail": 1867,
      "▁online\"": 1868,
      "▁url=\"https://www.github.com\"": 1869,
      "▁Let's": 1870,
      "▁Direction": 1871,
      "▁text=\"Let's": 1872,
      "▁job": 1873,
      "▁item": 1874,
      "▁conn": 1875,
      "▁url=\"http://amazon.com\"": 1876,
      "▁homepage.": 1877,
      "▁reviews\"": 1878,
      "▁trends": 1879,
      "▁90210": 1880,
      "▁text=\"90210": 1881,
      "▁bread\"": 1882,
      "▁2024\"": 1883,
      "▁text=\"send\"": 1884,
      "▁activ": 1885,
      "▁bring": 1886,
      "▁query=\"pizza": 1887,
      "▁classes": 1888,
      "▁url=\"https://mail.google.com\"": 1889,
      "▁text=\"90210\"": 1890,
      "#12345": 1891,
      ".world": 1892,
      "19": 1893,
      "3210": 1894,
      "AV": 1895,
      "E20": 1896,
      "Ord": 1897,
      "\\u": 1898,
      "c123": 1899,
      "es": 1900,
      "fir": 1901,
      "nce": 1902,
      "offee": 1903,
      "pr": 1904,
      "pinterest": 1905,
      "ric": 1906,
      "rite": 1907,
      "ther": 1908,
      "user": 1909,
      "what": 1910,
      "▁john": 1911,
      "▁#12345": 1912,
      "▁schedule": 1913,
      "▁car": 1914,
      "▁cond": 1915,
      "▁fix": 1916,
      "inate": 1917,
      "▁pinterest": 1918,
      "rence": 1919,
      "▁need": 1920,
      "lish": 1921,
      "▁text=\"tr": 1922,
      "psum": 1923,
      "ition": 1924,
      "arah": 1925,
      "▁ano": 1926,
      "▁quick": 1927,
      "▁goss": 1928,
      "▁google": 1929,
      "▁query=\"T": 1930,
      "▁url=\"docs.google.com\"": 1931,
      "angu": 1932,
      "▁do": 1933,
      "▁url=\"https://wikipedia.org\"": 1934,
      "▁write": 1935,
      "▁langu": 1936,
      "elta": 1937,
      "apple": 1938,
      "▁recipe.": 1939,
      "oga": 1940,
      "▁thank": 1941,
      "indly": 1942,
      "2019": 1943,
      "▁line": 1944,
      "▁tabId=0": 1945,
      "▁tabId=1": 1946,
      "▁Play": 1947,
      "orem": 1948,
      "olor": 1949,
      "▁translate": 1950,
      "▁video.": 1951,
      "▁videos.": 1952,
      "▁St.": 1953,
      "▁mak": 1954,
      "▁twitter.com,": 1955,
      "▁Jap": 1956,
      "▁secure": 1957,
      "▁cart.": 1958,
      "▁update\"": 1959,
      "▁services": 1960,
      "▁Bo": 1961,
      "▁text=\"Join": 1962,
      "▁text=\"Play": 1963,
      "▁ipsum": 1964,
      "ooking": 1965,
      "Password123": 1966,
      "▁Tesla.": 1967,
      "▁exit": 1968,
      "▁confe": 1969,
      "▁tie\"": 1970,
      "▁City.": 1971,
      "▁text=\"1234\"": 1972,
      "▁url=\"http://bbc.com\"": 1973,
      "iscount": 1974,
      "▁123456": 1975,
      "▁text=\"123456": 1976,
      "▁meeting": 1977,
      "▁johndoe@example.com": 1978,
      "▁johndoe@gmail.com": 1979,
      "▁smartphones": 1980,
      "▁tire": 1981,
      "▁text=\"secure": 1982,
      "▁text=\"secret": 1983,
      "ontinue": 1984,
      "▁text=\"johndoe@example.com\"": 1985,
      "▁text=\"johndoe@gmail.com\"": 1986,
      "▁Birthday!": 1987,
      "▁Birthday!\"": 1988,
      "▁Read": 1989,
      "▁beginner": 1990,
      "▁active": 1991,
      "▁text=\"register\"": 1992,
      "▁terminate": 1993,
      "▁kindly": 1994,
      "order": 1995,
      "▁restaurants\"": 1996,
      "▁text=\"delicious": 1997,
      "brity": 1998,
      "raft": 1999,
      "▁remove": 2000,
      "▁English": 2001,
      "▁Directions": 2002,
      "▁connect": 2003,
      "AVE20": 2004,
      "Order": 2005,
      "\\u2019": 2006,
      "firm": 2007,
      "pinterest.com\"": 2008,
      "▁condition": 2009,
      "▁pinterest.com": 2010,
      "▁another": 2011,
      "▁language": 2012,
      "▁conference": 2013,
      "\\u2019s": 2014,
      "In": 2015,
      "di": 2016,
      "egister\"": 2017,
      "fi": 2018,
      "ip\"": 2019,
      "imes": 2020,
      "ject": 2021,
      "ols": 2022,
      "un": 2023,
      "▁4": 2024,
      "▁555-": 2025,
      "▁456": 2026,
      "▁see": 2027,
      "▁spa": 2028,
      "▁cor": 2029,
      "▁fa": 2030,
      "▁fre": 2031,
      "orts": 2032,
      "▁pre": 2033,
      "▁text=\"get": 2034,
      "▁text=\"555-": 2035,
      "▁text=\"456": 2036,
      "▁breaking": 2037,
      "▁tools": 2038,
      "ttom": 2039,
      "ies": 2040,
      "▁good": 2041,
      "▁morning": 2042,
      "▁query=\"t": 2043,
      "▁query=\"pa": 2044,
      "ssw0rd": 2045,
      "lendar": 2046,
      "mage": 2047,
      "▁have": 2048,
      "123!": 2049,
      "▁url=\"https://www.instagram.com\"": 2050,
      "▁bottom": 2051,
      "▁York?": 2052,
      "▁visiting": 2053,
      "▁text=\"Send": 2054,
      "▁loading": 2055,
      "▁To": 2056,
      "▁Times": 2057,
      "▁Started": 2058,
      "▁Delta": 2059,
      "▁sevent": 2060,
      "▁Join": 2061,
      "▁JavaScrip": 2062,
      "▁text=\"Continue\"": 2063,
      "▁text=\"Pa": 2064,
      "▁jump": 2065,
      "▁fifth": 2066,
      "▁Paris?": 2067,
      "▁learning": 2068,
      "▁directions.": 2069,
      "▁query=\"coffee": 2070,
      "▁im": 2071,
      "▁gmail.com?": 2072,
      "▁reads": 2073,
      "▁support": 2074,
      "▁calendar": 2075,
      "potify": 2076,
      "▁text=\"Register\"": 2077,
      "▁text=\"Get": 2078,
      "▁trends\"": 2079,
      "▁98765": 2080,
      "alendar": 2081,
      "▁text=\"Download": 2082,
      "▁text=\"98765": 2083,
      "▁Re": 2084,
      "▁info": 2085,
      "▁plans": 2086,
      "▁plans\"": 2087,
      "▁field=\"calendar": 2088,
      "@company.com": 2089,
      "@company.com\"": 2090,
      "▁Later\"": 2091,
      "▁jane.doe@example.com": 2092,
      "▁concerts": 2093,
      "▁text=\"jane.doe@example.com\"": 2094,
      "▁sports": 2095,
      "▁activate": 2096,
      "▁text=\"123456\"": 2097,
      "dium": 2098,
      "▁corner": 2099,
      "▁query=\"pasta": 2100,
      "▁seventh": 2101,
      "43210": 2102,
      "@world": 2103,
      "IY": 2104,
      "Sec": 2105,
      "_doe\"": 2106,
      "ai": 2107,
      "co": 2108,
      "cle": 2109,
      "flow": 2110,
      "gage": 2111,
      "ill": 2112,
      "lan": 2113,
      "ms": 2114,
      "mate": 2115,
      "over": 2116,
      "rong": 2117,
      "uce": 2118,
      "username": 2119,
      "vis": 2120,
      "york": 2121,
      "▁$": 2122,
      "▁city": 2123,
      "eas\"": 2124,
      "earest": 2125,
      "orma": 2126,
      "tent": 2127,
      "inked": 2128,
      "expl": 2129,
      "onth": 2130,
      "▁pick": 2131,
      "▁text=\"ter": 2132,
      "▁text=\"best": 2133,
      "▁text=\"latest": 2134,
      "▁text=\"new": 2135,
      "▁text=\"expl": 2136,
      "▁und": 2137,
      "loff": 2138,
      "▁all": 2139,
      "crunch": 2140,
      "▁month": 2141,
      "▁query=\"N": 2142,
      "▁query=\"what": 2143,
      "▁url=\"cnn.com\"": 2144,
      "▁url=\"linkedin.com\"": 2145,
      "ackover": 2146,
      "ticle": 2147,
      "tions": 2148,
      "advis": 2149,
      "▁holiday": 2150,
      "▁lea": 2151,
      "▁url=\"https://www.weather.com\"": 2152,
      "▁url=\"https://www.facebook.com\"": 2153,
      "▁url=\"https://www.netflix.com\"": 2154,
      "mazing": 2155,
      "▁Sale": 2156,
      "▁SecurePass": 2157,
      "▁every": 2158,
      "kend": 2159,
      "ialoff": 2160,
      "▁link?": 2161,
      "▁text=\"St": 2162,
      "▁text=\"Submit": 2163,
      "▁text=\"SecurePass": 2164,
      "▁Meeting": 2165,
      "▁Ch": 2166,
      "▁Linked": 2167,
      "▁price\"": 2168,
      "▁videos\"": 2169,
      "ipadvis": 2170,
      "▁twitter.com?": 2171,
      "▁off": 2172,
      "▁tutorials?": 2173,
      "▁text=\"pizza": 2174,
      "▁text=\"continue\"": 2175,
      "▁engage": 2176,
      "▁abc123": 2177,
      "▁Tokyo.": 2178,
      "▁nearby.": 2179,
      "▁name.": 2180,
      "Password123\"": 2181,
      "▁content": 2182,
      "acy": 2183,
      "▁sunny": 2184,
      "licy": 2185,
      "▁pancakes": 2186,
      "▁text=\"Next\"": 2187,
      "▁text=\"start\"": 2188,
      "▁sign-in": 2189,
      "▁great\"": 2190,
      "▁explor": 2191,
      "▁article": 2192,
      "▁informa": 2193,
      "▁event\"": 2194,
      "pecialoff": 2195,
      "▁later\"": 2196,
      "▁field=\"city": 2197,
      "▁welcome2023": 2198,
      "▁showtimes": 2199,
      "▁excellent\"": 2200,
      "▁example@example.com": 2201,
      "▁noon\"": 2202,
      "▁text=\"example@example.com\"": 2203,
      "▁terms": 2204,
      "▁text=\"Meeting": 2205,
      "▁text=\"sunny": 2206,
      "789": 2207,
      "▁rain": 2208,
      "▁ideas": 2209,
      "▁ideas\"": 2210,
      "▁Inc.\"": 2211,
      "▁AA100": 2212,
      "▁Login": 2213,
      "▁dessert": 2214,
      "ivacy": 2215,
      "▁developer": 2216,
      "▁score": 2217,
      "▁query=\"Tesla": 2218,
      "▁fauce": 2219,
      "illing": 2220,
      "▁text=\"terms": 2221,
      "▁under": 2222,
      "ackoverflow": 2223,
      "▁LinkedIn": 2224,
      "ipadvisor": 2225,
      "▁information": 2226,
      "Subject\"": 2227,
      "are": 2228,
      "cation": 2229,
      "ed": 2230,
      "k\"": 2231,
      "mo": 2232,
      "ping": 2233,
      "upport": 2234,
      "way": 2235,
      "▁rec": 2236,
      "▁save": 2237,
      "▁catch": 2238,
      "▁pan": 2239,
      "▁put": 2240,
      "▁text=\"V": 2241,
      "▁text=\"ch": 2242,
      "▁text=\"password": 2243,
      "▁text=\"50": 2244,
      "▁text=\"th": 2245,
      "▁text=\"let": 2246,
      ".com/": 2247,
      "▁inser": 2248,
      "▁query=\"po": 2249,
      "▁query=\"mo": 2250,
      "▁url=\"wikipedia.org\"": 2251,
      "▁url=\"weather.com\"": 2252,
      "▁field=\"Subject\"": 2253,
      "▁url=\"https://nytimes.com\"": 2254,
      "▁url=\"https://linkedin.com\"": 2255,
      "▁url=\"https://github.com\"": 2256,
      "cess": 2257,
      "▁me,": 2258,
      "▁reloading": 2259,
      "▁now!": 2260,
      "▁now!\"": 2261,
      "▁News": 2262,
      "▁choo": 2263,
      "▁Con": 2264,
      "▁Check": 2265,
      "▁Continue": 2266,
      "▁password1234": 2267,
      "▁Let": 2268,
      "▁youtube.com,": 2269,
      "▁compose": 2270,
      "▁text=\"Let": 2271,
      "▁pasta.": 2272,
      "▁field=\"comment\"": 2273,
      "▁maps.google.com,": 2274,
      "▁field=\"feedback\"": 2275,
      "▁tutorials.": 2276,
      "▁enjoy": 2277,
      "▁mypassword123": 2278,
      "▁help\"": 2279,
      "▁text=\"mypassword123\"": 2280,
      "▁url=\"http://youtube.com\"": 2281,
      "▁query=\"chicken": 2282,
      "▁call": 2283,
      "▁pancakes\"": 2284,
      "▁access": 2285,
      "▁text=\"home\"": 2286,
      "▁subject.": 2287,
      "▁jane.smith": 2288,
      "▁text=\"jane.smith": 2289,
      "▁text=\"next": 2290,
      "▁there!": 2291,
      "▁there!\"": 2292,
      "▁post": 2293,
      "▁popular": 2294,
      "▁birthday\"": 2295,
      "▁soon\"": 2296,
      "%OFF\"": 2297,
      "▁text=\"Feedback": 2298,
      "▁text=\"about": 2299,
      "▁text=\"welcome2023\"": 2300,
      "▁area.": 2301,
      "▁body\"": 2302,
      "▁profi": 2303,
      "▁weekend": 2304,
      "▁regards": 2305,
      "▁yoga": 2306,
      "▁john_doe": 2307,
      "▁makers": 2308,
      "▁free\"": 2309,
      "▁text=\"Password123\"": 2310,
      "pecialoffer": 2311,
      "▁text=\"password1234\"": 2312,
      "▁text=\"thank": 2313,
      "▁insert": 2314,
      "▁query=\"popular": 2315,
      "▁query=\"movie": 2316,
      "▁choose": 2317,
      "▁profile": 2318,
      ".O": 2319,
      ".u": 2320,
      "21": 2321,
      "410": 2322,
      "@ssw0rd": 2323,
      "Main": 2324,
      "SS": 2325,
      "XY": 2326,
      "aw": 2327,
      "ago": 2328,
      "bout": 2329,
      "db": 2330,
      "ey": 2331,
      "etail": 2332,
      "hteen": 2333,
      "ift": 2334,
      "jour": 2335,
      "nor": 2336,
      "rivacy": 2337,
      "son": 2338,
      "ust": 2339,
      "unny": 2340,
      "wes": 2341,
      "ym": 2342,
      "▁6": 2343,
      "▁8": 2344,
      "▁23": 2345,
      "▁order": 2346,
      "▁sli": 2347,
      "▁sit": 2348,
      "▁sale": 2349,
      "▁spotify": 2350,
      "▁cen": 2351,
      "▁cele": 2352,
      "ories": 2353,
      "onate": 2354,
      "onjour": 2355,
      "reddit": 2356,
      "▁note": 2357,
      "▁text=\"i": 2358,
      "▁climate": 2359,
      "▁bonjour": 2360,
      "ighteen": 2361,
      "able": 2362,
      "tting": 2363,
      "▁query=\"book": 2364,
      "▁url=\"instagram.com\"": 2365,
      "▁url=\"pinterest.com\"": 2366,
      "▁field=\"lo": 2367,
      "▁dolor": 2368,
      "▁url=\"https://facebook.com\"": 2369,
      "▁reddit": 2370,
      "▁page\"": 2371,
      "eadline": 2372,
      "▁Subject": 2373,
      "▁Summer": 2374,
      "▁eighteen": 2375,
      "mes\"": 2376,
      "cele": 2377,
      "▁location": 2378,
      "2024": 2379,
      "▁11": 2380,
      "▁12": 2381,
      "▁13": 2382,
      "▁14": 2383,
      "▁16": 2384,
      "▁17": 2385,
      "▁18": 2386,
      "▁19": 2387,
      "▁News\"": 2388,
      "▁text=\"Summer": 2389,
      "▁news?": 2390,
      "▁test": 2391,
      "▁Twitter": 2392,
      "▁To\"": 2393,
      "▁This": 2394,
      "oceed": 2395,
      "▁Detail": 2396,
      "▁fourth": 2397,
      "▁gym": 2398,
      "▁Apple?": 2399,
      "▁21": 2400,
      "▁22": 2401,
      "▁24": 2402,
      "▁Facebook": 2403,
      "icago": 2404,
      "▁sixteen": 2405,
      "▁deli": 2406,
      "▁nineteen": 2407,
      "lectric": 2408,
      "▁learning\"": 2409,
      "▁eighth": 2410,
      "▁seventeen": 2411,
      "▁shops.": 2412,
      "▁gmail.com.": 2413,
      "▁JohnDoe": 2414,
      "▁Johnson": 2415,
      "▁docs.google.com?": 2416,
      "▁query=\"translate": 2417,
      "▁More.": 2418,
      "▁trails\"": 2419,
      "▁Get": 2420,
      "▁review\"": 2421,
      "▁World!": 2422,
      "▁World!\"": 2423,
      "▁Haw": 2424,
      "▁live": 2425,
      "▁Welcome2023": 2426,
      "▁produc": 2427,
      "▁destinations\"": 2428,
      "▁johndoe123": 2429,
      "▁text=\"johndoe123\"": 2430,
      "▁there\"": 2431,
      "▁cookies": 2432,
      "▁Python\"": 2433,
      "▁NYC\"": 2434,
      "secure": 2435,
      "▁Angeles\"": 2436,
      "▁text=\"register": 2437,
      "▁brown": 2438,
      "▁happybirthday": 2439,
      "▁welcome123": 2440,
      "▁text=\"happybirthday": 2441,
      "▁example123": 2442,
      "▁text=\"example123\"": 2443,
      "▁text=\"support": 2444,
      "pose\"": 2445,
      "▁text=\"Follow\"": 2446,
      "▁text=\"abc": 2447,
      "▁text=\"welcome123\"": 2448,
      "▁desserts": 2449,
      "▁Feedback\"": 2450,
      "▁started\"": 2451,
      "▁field=\"message\"": 2452,
      "ditation": 2453,
      "▁tutorial\"": 2454,
      "▁recommendations": 2455,
      "▁recommendations\"": 2456,
      "▁text=\"try": 2457,
      "▁Japan": 2458,
      "▁securepassword123": 2459,
      "▁Box": 2460,
      "▁text=\"securepassword123\"": 2461,
      "▁conferences": 2462,
      "▁555-1234": 2463,
      "▁space": 2464,
      "▁text=\"555-1234\"": 2465,
      "▁JavaScript": 2466,
      "▁impr": 2467,
      "aii": 2468,
      "▁query=\"New": 2469,
      "▁everyone": 2470,
      "▁Chicago": 2471,
      "▁recent": 2472,
      "▁text=\"chocolate": 2473,
      "▁Connor": 2474,
      "▁Checkout": 2475,
      "▁Let’s": 2476,
      "▁text=\"Let\\u2019s": 2477,
      ".O.": 2478,
      "MainS": 2479,
      "XYZ": 2480,
      "wesome": 2481,
      "▁slide": 2482,
      "▁center": 2483,
      "reddit.com\"": 2484,
      "▁reddit.com": 2485,
      "▁Hawaii": 2486,
      "'hello": 2487,
      ".doe\"": 2488,
      "a.org": 2489,
      "cation\"": 2490,
      "d\"": 2491,
      "essage": 2492,
      "now": 2493,
      "ood": 2494,
      "s!": 2495,
      "s!\"": 2496,
      "v\"": 2497,
      "▁Order": 2498,
      "▁'hello": 2499,
      "▁summer": 2500,
      "▁fan": 2501,
      "onfirm": 2502,
      "▁text=\"com": 2503,
      "▁text=\"to": 2504,
      "▁text=\"news\"": 2505,
      "▁text=\"pass": 2506,
      "▁text=\"Order": 2507,
      "ers\"": 2508,
      "good": 2509,
      "se\"": 2510,
      "▁amazing": 2511,
      "▁mome": 2512,
      "▁query=\"cele": 2513,
      "▁url=\"tr": 2514,
      "▁url=\"nytimes.com\"": 2515,
      "▁field=\"b": 2516,
      "▁field=\"de": 2517,
      "stic": 2518,
      "stination": 2519,
      "▁direc": 2520,
      "▁url=\"https://www.amazon": 2521,
      "▁Sarah": 2522,
      "▁SAVE20": 2523,
      "tastic": 2524,
      "▁Next": 2525,
      "▁medium": 2526,
      "▁text=\"sh": 2527,
      "▁text=\"summer": 2528,
      "sera.org": 2529,
      "name": 2530,
      "▁text=\"Sarah": 2531,
      "▁text=\"SAVE20": 2532,
      "▁Mi": 2533,
      "▁Message": 2534,
      "▁Promo": 2535,
      "▁Tr": 2536,
      "oursera.org": 2537,
      "▁coding": 2538,
      "▁train": 2539,
      "▁hello.world": 2540,
      "▁Start": 2541,
      "▁main": 2542,
      "▁DIY": 2543,
      "▁quotes.": 2544,
      "▁forecast?": 2545,
      "▁deals.": 2546,
      "▁Free": 2547,
      "▁text=\"hello.world": 2548,
      "▁text=\"cart\"": 2549,
      "▁cake.": 2550,
      "asa.go": 2551,
      "▁Tokyo?": 2552,
      "▁text=\"Password123": 2553,
      "ames": 2554,
      "▁lasagna.": 2555,
      "▁myemail": 2556,
      "▁mysecret": 2557,
      "▁myPassword123": 2558,
      "▁image": 2559,
      "▁browse": 2560,
      "▁docs.google.com.": 2561,
      "▁tomorrow.": 2562,
      "▁text=\"myemail": 2563,
      "▁text=\"myPassword123\"": 2564,
      "▁url=\"http://maps.google.com\"": 2565,
      "▁url=\"http://cnn.com\"": 2566,
      "▁Spanish.": 2567,
      "▁text=\"JohnDoe": 2568,
      "▁Cart.": 2569,
      "▁nytimes.com?": 2570,
      "▁2023.": 2571,
      "urePassword123": 2572,
      "urePassword123\"": 2573,
      "▁LA\"": 2574,
      "▁text=\"Good": 2575,
      "▁text=\"To": 2576,
      "▁text=\"This": 2577,
      "smith\"": 2578,
      "▁YouTube.": 2579,
      "▁below": 2580,
      "▁Vacation": 2581,
      "▁jane_doe": 2582,
      "▁info\"": 2583,
      "▁events": 2584,
      "▁text=\"help": 2585,
      "▁guest": 2586,
      "▁Amazon's": 2587,
      "▁Good": 2588,
      "▁know": 2589,
      "▁rate": 2590,
      "▁releases": 2591,
      "▁releases\"": 2592,
      "▁project": 2593,
      "▁team!": 2594,
      "▁team!\"": 2595,
      "▁Password123!": 2596,
      "▁today?\"": 2597,
      "▁regards\"": 2598,
      "▁#12345\"": 2599,
      "▁gossip": 2600,
      "▁gossip\"": 2601,
      "▁St.\"": 2602,
      "iscount2023": 2603,
      "iscount2023\"": 2604,
      "▁beginners\"": 2605,
      "▁conditions": 2606,
      "▁conditions\"": 2607,
      "▁languages": 2608,
      "▁languages\"": 2609,
      "▁query=\"the": 2610,
      "▁Started\"": 2611,
      "▁text=\"98765\"": 2612,
      "▁Register": 2613,
      "▁text=\"explore\"": 2614,
      "▁text=\"Start": 2615,
      "▁exploration": 2616,
      "▁spotify.com": 2617,
      "▁celebrity": 2618,
      "▁field=\"location\"": 2619,
      "▁JohnDoe123": 2620,
      "▁text=\"abc123\"": 2621,
      "▁'hello'": 2622,
      "▁fantastic": 2623,
      "▁text=\"today's": 2624,
      "▁moment": 2625,
      "▁query=\"celebrity": 2626,
      "▁field=\"destination": 2627,
      "▁direct": 2628,
      "▁url=\"https://www.amazon.com/": 2629,
      "▁medium.com": 2630,
      "▁text=\"SAVE20\"": 2631,
      "▁Message\"": 2632,
      "▁text=\"Password123!\"": 2633,
      "▁text=\"JohnDoe123\"": 2634,
      "▁field=\"destination\"": 2635,
      ".t": 2636,
      ".co": 2637,
      "25": 2638,
      "89": 2639,
      "@d": 2640,
      "@ser": 2641,
      "AP": 2642,
      "ASS": 2643,
      "BA": 2644,
      "FK": 2645,
      "OR": 2646,
      "Python": 2647,
      "SecurePass": 2648,
      "WOR": 2649,
      "all": 2650,
      "at\"": 2651,
      "cat": 2652,
      "cast": 2653,
      "cust": 2654,
      "dget": 2655,
      "fo": 2656,
      "fway": 2657,
      "ghe": 2658,
      "gur": 2659,
      "if": 2660,
      "ky": 2661,
      "lth": 2662,
      "my": 2663,
      "mber": 2664,
      "note": 2665,
      "oom": 2666,
      "ober": 2667,
      "otify": 2668,
      "oject": 2669,
      "olicy": 2670,
      "ph": 2671,
      "pm": 2672,
      "pment": 2673,
      "port": 2674,
      "ron": 2675,
      "roject": 2676,
      "sk": 2677,
      "support": 2678,
      "uch": 2679,
      "uper": 2680,
      "vice": 2681,
      "vale": 2682,
      "wn": 2683,
      "wee": 2684,
      "zip\"": 2685,
      "zoom": 2686,
      "▁av": 2687,
      "▁special": 2688,
      "▁specialoffer": 2689,
      "each": 2690,
      "ealth": 2691,
      "▁fram": 2692,
      "ora": 2693,
      "omain": 2694,
      "cha": 2695,
      "▁pod": 2696,
      "▁pump": 2697,
      "▁nove": 2698,
      "▁nearest": 2699,
      "list": 2700,
      "live": 2701,
      "▁text=\"ad": 2702,
      "▁text=\"user": 2703,
      "▁text=\"789": 2704,
      "▁bit": 2705,
      "▁bow": 2706,
      "▁blog": 2707,
      "▁billing": 2708,
      "▁beach": 2709,
      "▁un": 2710,
      "▁user": 2711,
      "▁in.": 2712,
      "▁inve": 2713,
      "love": 2714,
      "abc": 2715,
      "tti": 2716,
      "sent": 2717,
      "ave\"": 2718,
      "▁alice": 2719,
      "▁gold": 2720,
      "town": 2721,
      "▁much": 2722,
      "▁query=\"D": 2723,
      "▁query=\"is": 2724,
      "▁query=\"apple": 2725,
      "▁query=\"good": 2726,
      "▁query=\"Python": 2727,
      "▁query=\"live": 2728,
      "▁url=\"me": 2729,
      "▁url=\"sp": 2730,
      "▁url=\"espn.com\"": 2731,
      "▁url=\"netflix.com\"": 2732,
      "ll\"": 2733,
      "▁field=\"to": 2734,
      "▁field=\"note": 2735,
      "▁field=\"zip\"": 2736,
      "ston": 2737,
      "stric": 2738,
      "stackoverflow": 2739,
      "▁dog": 2740,
      "▁draft": 2741,
      "lete": 2742,
      "▁url=\"https://bbc.com/news\"": 2743,
      "times\"": 2744,
      "ube\"": 2745,
      "ework": 2746,
      "ado": 2747,
      "arden": 2748,
      "▁hal": 2749,
      "▁budget": 2750,
      "▁welcom": 2751,
      "▁button,": 2752,
      "▁lorem": 2753,
      "▁res": 2754,
      "▁restric": 2755,
      "ami": 2756,
      "witch.t": 2757,
      "▁directions\"": 2758,
      "ssword!": 2759,
      "▁newyork": 2760,
      "aple": 2761,
      "▁very": 2762,
      "▁edit": 2763,
      "ing.com": 2764,
      "ing.com\"": 2765,
      "desk": 2766,
      "▁menu": 2767,
      "▁member": 2768,
      "▁love": 2769,
      "enn": 2770,
      "▁text=\"save": 2771,
      "▁text=\"special": 2772,
      "romo2023\"": 2773,
      "▁feedback:": 2774,
      "arty": 2775,
      "▁techcrunch": 2776,
      "▁Market": 2777,
      "▁Maple": 2778,
      "▁AM": 2779,
      "▁Color": 2780,
      "▁Please": 2781,
      "▁Plan": 2782,
      "▁Policy": 2783,
      "▁file": 2784,
      "▁proceed": 2785,
      "▁tripadvisor": 2786,
      "▁video!": 2787,
      "▁video!\"": 2788,
      "▁tweet": 2789,
      "ipping": 2790,
      "▁subscribe.": 2791,
      "▁hello@world": 2792,
      "▁St,": 2793,
      "▁shift": 2794,
      "▁Directions\"": 2795,
      "▁setting": 2796,
      "▁text=\"Lik": 2797,
      "▁Park": 2798,
      "▁glo": 2799,
      "▁gas": 2800,
      "▁garden": 2801,
      "▁deals?": 2802,
      "▁JFK": 2803,
      "▁us.": 2804,
      "▁securePass": 2805,
      "fford": 2806,
      "▁text=\"hello@world": 2807,
      "▁field=\"username": 2808,
      "▁services\"": 2809,
      "▁text=\"Cart\"": 2810,
      "▁text=\"confirm": 2811,
      "techcrunch": 2812,
      "▁cnn.com,": 2813,
      "▁cnn.com.": 2814,
      "▁cnn.com?": 2815,
      "▁BA": 2816,
      "▁stackoverflow": 2817,
      "▁text=\"Please": 2818,
      "▁3pm": 2819,
      "▁mySec": 2820,
      "▁myusername": 2821,
      "lectron": 2822,
      "▁query=\"cat": 2823,
      "▁query=\"cooking": 2824,
      "news": 2825,
      "▁text=\"meeting": 2826,
      "▁movies\"": 2827,
      "▁confirm": 2828,
      "▁2025": 2829,
      "▁London.": 2830,
      "▁text=\"mysecret": 2831,
      "▁text=\"mySec": 2832,
      "ishlist": 2833,
      "▁url=\"http://twitter.com\"": 2834,
      "▁789": 2835,
      "▁text=\"lorem": 2836,
      "▁cooking": 2837,
      "▁nytimes.com.": 2838,
      "▁cafe": 2839,
      "▁updates?": 2840,
      "▁French.": 2841,
      "▁Update": 2842,
      "▁text=\"draft": 2843,
      "▁LAX": 2844,
      "▁Francisco.": 2845,
      "venture": 2846,
      "ships": 2847,
      "▁YouTube\"": 2848,
      "▁How": 2849,
      "▁NY\"": 2850,
      "▁Welcome123!": 2851,
      "▁text=\"Welcome2023\"": 2852,
      "▁text=\"Welcome123!\"": 2853,
      "▁query=\"nearest": 2854,
      "▁text=\"securePass": 2855,
      "▁View": 2856,
      "▁text=\"jane_doe\"": 2857,
      "OFF\"": 2858,
      "▁50%OFF": 2859,
      "▁shopping.": 2860,
      "▁programming\"": 2861,
      "▁bread.": 2862,
      "▁plant": 2863,
      "▁books": 2864,
      "▁query=\"AI": 2865,
      "▁website.": 2866,
      "BCD": 2867,
      "▁policy": 2868,
      "▁pie\"": 2869,
      "▁showtimes\"": 2870,
      "ovement": 2871,
      "▁newsletter\"": 2872,
      "▁text=\"john_doe\"": 2873,
      "▁text=\"john.doe\"": 2874,
      "▁text=\"sign-in\"": 2875,
      "▁here\"": 2876,
      "78\"": 2877,
      "ahoo": 2878,
      "▁text=\"alice": 2879,
      "▁secret123": 2880,
      "▁development": 2881,
      "▁trending.": 2882,
      "▁tips\"": 2883,
      "pring": 2884,
      "▁schedules": 2885,
      "▁cars": 2886,
      "▁needed": 2887,
      "▁text=\"travel": 2888,
      "▁quickly": 2889,
      "▁line.": 2890,
      "▁Japane": 2891,
      "▁Boston": 2892,
      "▁tire\"": 2893,
      "▁text=\"secret123\"": 2894,
      "▁conferences\"": 2895,
      "▁present": 2896,
      "mages\"": 2897,
      "▁text=\"Send\"": 2898,
      "▁9876543210": 2899,
      "▁text=\"9876543210": 2900,
      "dium.com\"": 2901,
      "▁$50": 2902,
      "▁text=\"newyork": 2903,
      "▁month\"": 2904,
      "▁leaking": 2905,
      "▁leaky": 2906,
      "▁Sale\"": 2907,
      "▁SecurePass123": 2908,
      "▁text=\"SecurePass123\"": 2909,
      "▁content\"": 2910,
      "▁field=\"city\"": 2911,
      "▁rain\"": 2912,
      "▁AA100\"": 2913,
      "▁developers": 2914,
      "▁developers\"": 2915,
      "▁scores": 2916,
      "▁scores\"": 2917,
      "▁faucet": 2918,
      "▁faucet\"": 2919,
      "ipadvisor.com\"": 2920,
      "▁text=\"View": 2921,
      "▁text=\"50%OFF\"": 2922,
      "▁text=\"images\"": 2923,
      "eadlines\"": 2924,
      "▁Details\"": 2925,
      "▁delivery": 2926,
      "▁producti": 2927,
      "▁improvement": 2928,
      "MainSt": 2929,
      "▁field=\"billing": 2930,
      "▁Miami": 2931,
      "▁Trial": 2932,
      "▁images": 2933,
      "▁text=\"Today's": 2934,
      ".co.u": 2935,
      "@domain": 2936,
      "@service": 2937,
      "ASSWOR": 2938,
      "custom": 2939,
      "ghetti": 2940,
      "guru": 2941,
      "obert": 2942,
      "otify.com\"": 2943,
      "▁avoc": 2944,
      "ealthy": 2945,
      "▁framework": 2946,
      "▁podcast": 2947,
      "▁pumpk": 2948,
      "▁invest": 2949,
      "▁url=\"medium.com\"": 2950,
      "▁url=\"spotify.com\"": 2951,
      "stackoverflow.com\"": 2952,
      "▁halfway": 2953,
      "▁welcome\"": 2954,
      "▁restrictions": 2955,
      "▁memberships": 2956,
      "▁techcrunch.com": 2957,
      "▁tripadvisor.com": 2958,
      "▁hello@world.com": 2959,
      "▁text=\"Like\"": 2960,
      "▁securePass123": 2961,
      "ffordable": 2962,
      "▁text=\"hello@world.com\"": 2963,
      "techcrunch.com\"": 2964,
      "▁stackoverflow.com": 2965,
      "lectronic": 2966,
      "▁text=\"securePass123\"": 2967,
      "▁presentation": 2968,
      "▁text=\"9876543210\"": 2969,
      "ASSWORD": 2970,
      "0123": 2971,
      "0123\"": 2972,
      "DF": 2973,
      "Hub": 2974,
      "JavaScrip": 2975,
      "aps": 2976,
      "aking": 2977,
      "breaking": 2978,
      "eb": 2979,
      "ell": 2980,
      "et\"": 2981,
      "electric": 2982,
      "im": 2983,
      "lasagna": 2984,
      "min": 2985,
      "nation": 2986,
      "nasa.go": 2987,
      "ox": 2988,
      "ode": 2989,
      "rate": 2990,
      "ration": 2991,
      "ral": 2992,
      "sit": 2993,
      "us\"": 2994,
      "username\"": 2995,
      "vious": 2996,
      "web": 2997,
      "yoga": 2998,
      "▁123\"": 2999,
      "▁555": 3000,
      "▁coursera.org": 3001,
      "eals\"": 3002,
      "▁feed": 3003,
      "▁foo": 3004,
      "▁fun": 3005,
      "ort\"": 3006,
      "ompose\"": 3007,
      "▁python": 3008,
      "▁party": 3009,
      "reen": 3010,
      "▁text=\"E": 3011,
      "▁text=\"I": 3012,
      "▁text=\"e": 3013,
      "▁text=\"g": 3014,
      "▁text=\"t": 3015,
      "▁text=\"pa": 3016,
      "▁text=\"20": 3017,
      "▁text=\"book": 3018,
      "▁text=\"up": 3019,
      "▁text=\"555": 3020,
      "▁text=\"world": 3021,
      "▁text=\"order": 3022,
      "▁text=\"rate": 3023,
      "▁typing": 3024,
      "▁inter": 3025,
      "ttle": 3026,
      "google": 3027,
      "itHub": 3028,
      "▁al": 3029,
      "▁navigation": 3030,
      "quick": 3031,
      "▁query=\"me": 3032,
      "▁query=\"hello": 3033,
      "▁query=\"JavaScrip": 3034,
      "▁query=\"breaking": 3035,
      "▁query=\"electric": 3036,
      "▁query=\"lasagna": 3037,
      "▁query=\"yoga": 3038,
      "▁query=\"quick": 3039,
      "▁url=\"github.com\"": 3040,
      "▁url=\"facebook.com\"": 3041,
      "▁url=\"stackoverflow.com\"": 3042,
      "ange": 3043,
      "▁field=\"st": 3044,
      "▁discount2023": 3045,
      "▁url=\"https://weather.com\"": 3046,
      "▁url=\"https://techcrunch.com\"": 3047,
      "▁passw0rd": 3048,
      "tions\"": 3049,
      "ado\"": 3050,
      "▁home\"": 3051,
      "▁wishlist": 3052,
      "▁button\"": 3053,
      "▁repo": 3054,
      "▁url=\"https://www.bbc.com/": 3055,
      "▁url=\"https://www.reddit.com\"": 3056,
      "▁url=\"https://www.nasa.go": 3057,
      "▁upload": 3058,
      "▁amet": 3059,
      "▁amet\"": 3060,
      "▁this\"": 3061,
      "▁Save": 3062,
      "▁Spotify": 3063,
      "▁Spring": 3064,
      "▁electric": 3065,
      "▁Need": 3066,
      "▁meditation": 3067,
      "atus": 3068,
      "20\"": 3069,
      "▁text=\"sale": 3070,
      "▁text=\"specialoffer": 3071,
      "▁text=\"save\"": 3072,
      "▁box?": 3073,
      "password2023": 3074,
      "password2023\"": 3075,
      "▁chance": 3076,
      "▁feedback@company.com": 3077,
      "▁Maps": 3078,
      "▁Alice": 3079,
      "▁About": 3080,
      "2023!\"": 3081,
      "▁password\"": 3082,
      "est123": 3083,
      "est123\"": 3084,
      "▁P.O.": 3085,
      "▁PDF": 3086,
      "▁Test123": 3087,
      "reet": 3088,
      "▁email\"": 3089,
      "▁Us.": 3090,
      "weather\"": 3091,
      "▁share": 3092,
      "▁quotes?": 3093,
      "▁forecast.": 3094,
      "▁text=\"Latest": 3095,
      "▁using": 3096,
      "▁text=\"hello\"": 3097,
      "▁Wikipedia": 3098,
      "▁service,": 3099,
      "▁text=\"Compose\"": 3100,
      "▁more.": 3101,
      "▁text=\"Alice": 3102,
      "▁text=\"About": 3103,
      "▁text=\"continue": 3104,
      "▁text=\"feedback:": 3105,
      "▁text=\"feedback@company.com\"": 3106,
      "▁Now.": 3107,
      "▁stay": 3108,
      "▁strong": 3109,
      "▁stories": 3110,
      "▁text=\"P.O.": 3111,
      "▁text=\"Promo2023\"": 3112,
      "ance\"": 3113,
      "▁jdoe": 3114,
      "▁my_": 3115,
      "view\"": 3116,
      "entral": 3117,
      "omorrow's": 3118,
      "▁tie.": 3119,
      "▁tomorrow's": 3120,
      "▁text=\"jdoe": 3121,
      "▁query=\"travel": 3122,
      "▁text=\"my_": 3123,
      "▁text=\"myusername\"": 3124,
      "▁1234MainSt": 3125,
      "aily": 3126,
      "▁status\"": 3127,
      "▁trailer": 3128,
      "▁trailer\"": 3129,
      "▁GitHub": 3130,
      "▁wikipedia.org.": 3131,
      "▁text=\"buy\"": 3132,
      "▁let’s": 3133,
      "▁text=\"discount2023\"": 3134,
      "▁out.": 3135,
      "▁text=\"Test123\"": 3136,
      "istration": 3137,
      "▁9410": 3138,
      "▁text=\"Need": 3139,
      "▁destinations.": 3140,
      "▁dinner\"": 3141,
      "▁text=\"strong": 3142,
      "▁times": 3143,
      "▁product!": 3144,
      "▁product!\"": 3145,
      "▁text=\"9410": 3146,
      "▁50OFF": 3147,
      "▁books\"": 3148,
      "▁JaneDoe": 3149,
      "▁text=\"JaneDoe": 3150,
      "BC123": 3151,
      "▁text=\"review\"": 3152,
      "▁query=\"restaurant": 3153,
      "▁text=\"john_doe": 3154,
      "▁text=\"johndoe\"": 3155,
      "▁site.": 3156,
      "▁query=\"python": 3157,
      "▁Thanks!": 3158,
      "▁text=\"Thanks!\"": 3159,
      "▁registration": 3160,
      "w0rd!\"": 3161,
      "▁AA123": 3162,
      "▁AA123\"": 3163,
      "▁text=\"amazing": 3164,
      "▁text=\"all\"": 3165,
      "▁music\"": 3166,
      "▁week": 3167,
      "▁week\"": 3168,
      "pass123": 3169,
      "pass123\"": 3170,
      "▁jane.doe@gmail.com": 3171,
      "▁Google\"": 3172,
      "▁day!": 3173,
      "▁day!\"": 3174,
      "▁AI\"": 3175,
      "▁secretpassword123": 3176,
      "▁concert": 3177,
      "▁text=\"jane.doe@gmail.com\"": 3178,
      "▁guitar\"": 3179,
      "▁assistance": 3180,
      "▁assistance\"": 3181,
      "▁jobs": 3182,
      "▁johnsmith": 3183,
      "▁google.com": 3184,
      "▁makers\"": 3185,
      "▁text=\"secretpassword123\"": 3186,
      "▁beginners": 3187,
      "▁555-0123": 3188,
      "▁45678": 3189,
      "▁spaghetti": 3190,
      "▁previous": 3191,
      "▁text=\"555-0123\"": 3192,
      "▁text=\"45678\"": 3193,
      "▁morning!": 3194,
      "▁morning!\"": 3195,
      "▁query=\"tomorrow's": 3196,
      "▁JavaScript\"": 3197,
      "▁imdb": 3198,
      "▁corner.": 3199,
      "username123\"": 3200,
      "▁text=\"explore": 3201,
      "▁query=\"what's": 3202,
      "▁SecurePass123!": 3203,
      "▁text=\"Start\"": 3204,
      "▁text=\"SecurePass123!\"": 3205,
      "▁exploration\"": 3206,
      "▁article.": 3207,
      "▁LinkedIn's": 3208,
      "are\"": 3209,
      "▁text=\"Vacation": 3210,
      "▁text=\"50OFF\"": 3211,
      "▁text=\"let's": 3212,
      "▁text=\"let\\u2019s": 3213,
      "▁jane.smith@example.com": 3214,
      "▁text=\"jane.smith\"": 3215,
      "▁text=\"jane.smith@example.com\"": 3216,
      "▁weekend\"": 3217,
      "21\"": 3218,
      "db.com\"": 3219,
      "▁sale2023": 3220,
      "▁bonjour\"": 3221,
      "2024\"": 3222,
      "▁Johnson\"": 3223,
      "▁brownie": 3224,
      "▁happybirthday123": 3225,
      "▁happybirthday2023": 3226,
      "▁text=\"happybirthday123\"": 3227,
      "▁text=\"happybirthday2023\"": 3228,
      "▁Japan\"": 3229,
      "▁Chicago\"": 3230,
      "▁Connor\"": 3231,
      "▁center\"": 3232,
      "▁Hawaii\"": 3233,
      "▁summer2023": 3234,
      "▁text=\"compose\"": 3235,
      "▁url=\"tripadvisor.com\"": 3236,
      "▁text=\"share\"": 3237,
      "▁text=\"summer2023\"": 3238,
      "▁Promo2023": 3239,
      "▁hello.world@example.com": 3240,
      "▁text=\"hello.world@example.com\"": 3241,
      "ports\"": 3242,
      "weet\"": 3243,
      "▁specialoffer2023": 3244,
      "▁alice@example.com": 3245,
      "▁query=\"DIY": 3246,
      "▁field=\"to\"": 3247,
      "▁field=\"note\"": 3248,
      "▁text=\"confirm\"": 3249,
      "▁text=\"alice@example.com\"": 3250,
      "▁productiv": 3251,
      "customer": 3252,
      "▁podcasts": 3253,
      "▁pumpkin": 3254,
      "imdb.com\"": 3255,
      "national": 3256,
      "sitories": 3257,
      "▁text=\"upload\"": 3258,
      "▁text=\"rate\"": 3259,
      "▁international": 3260,
      "google.com\"": 3261,
      "▁query=\"meditation": 3262,
      "▁query=\"JavaScript": 3263,
      "▁field=\"status": 3264,
      "▁repositories": 3265,
      "▁url=\"https://www.nasa.gov\"": 3266,
      "▁text=\"sale2023\"": 3267,
      "▁text=\"specialoffer2023\"": 3268,
      "▁chance.": 3269,
      "▁imdb.com": 3270,
      "$50": 3271,
      "'m": 3272,
      "'t": 3273,
      "-65": 3274,
      "-3210": 3275,
      "-fi": 3276,
      ".\"": 3277,
      ".us": 3278,
      ".Doe": 3279,
      ".what": 3280,
      "04": 3281,
      "12": 3282,
      "1B": 3283,
      "28": 3284,
      "2get": 3285,
      "3\"": 3286,
      "4\"": 3287,
      "43": 3288,
      "4-3210": 3289,
      "5\"": 3290,
      "67": 3291,
      "@ss": 3292,
      "@wor": 3293,
      "@hel": 3294,
      "@site": 3295,
      "@support": 3296,
      "@web": 3297,
      "AL": 3298,
      "AQ": 3299,
      "A100": 3300,
      "ABCD": 3301,
      "B12": 3302,
      "CD": 3303,
      "CR": 3304,
      "Cod": 3305,
      "ER": 3306,
      "ET": 3307,
      "ECR": 3308,
      "ML": 3309,
      "NN": 3310,
      "PY": 3311,
      "P@ss": 3312,
      "QW": 3313,
      "Sh": 3314,
      "Smith": 3315,
      "SAP": 3316,
      "TY": 3317,
      "TML": 3318,
      "User": 3319,
      "Vac": 3320,
      "_password123\"": 3321,
      "_smith": 3322,
      "_password123": 3323,
      "_user": 3324,
      "_smith\"": 3325,
      "a\"": 3326,
      "ati": 3327,
      "air": 3328,
      "ached": 3329,
      "affordable": 3330,
      "bn": 3331,
      "bon": 3332,
      "bs\"": 3333,
      "bond": 3334,
      "bal": 3335,
      "ball": 3336,
      "bing.com\"": 3337,
      "cc": 3338,
      "cam": 3339,
      "cel": 3340,
      "count": 3341,
      "coin": 3342,
      "cup": 3343,
      "cted": 3344,
      "coursera.org": 3345,
      "dn": 3346,
      "d!\"": 3347,
      "dic": 3348,
      "deals\"": 3349,
      "ech": 3350,
      "ere": 3351,
      "ess": 3352,
      "ee\"": 3353,
      "emy": 3354,
      "fie": 3355,
      "field": 3356,
      "fast": 3357,
      "fect": 3358,
      "follow": 3359,
      "follow\"": 3360,
      "ful": 3361,
      "fo\"": 3362,
      "gon": 3363,
      "han": 3364,
      "hus": 3365,
      "hai": 3366,
      "irl": 3367,
      "ive": 3368,
      "ike": 3369,
      "i-fi": 3370,
      "kmail": 3371,
      "kly": 3372,
      "kfast": 3373,
      "lv": 3374,
      "lli": 3375,
      "lat": 3376,
      "lph": 3377,
      "man": 3378,
      "me\"": 3379,
      "mind": 3380,
      "mote": 3381,
      "morning": 3382,
      "mph": 3383,
      "n,": 3384,
      "nsh": 3385,
      "nick": 3386,
      "nite": 3387,
      "ning\"": 3388,
      "njoy": 3389,
      "ness": 3390,
      "ov": 3391,
      "och": 3392,
      "ole": 3393,
      "open": 3394,
      "oice": 3395,
      "opping": 3396,
      "pp\"": 3397,
      "pizza": 3398,
      "pup": 3399,
      "pdesk": 3400,
      "qw": 3401,
      "ror": 3402,
      "rat": 3403,
      "rick": 3404,
      "rook": 3405,
      "rist": 3406,
      "roceed": 3407,
      "subscribe": 3408,
      "sapp": 3409,
      "sted": 3410,
      "super": 3411,
      "sfie": 3412,
      "twitch.t": 3413,
      "tball": 3414,
      "ute": 3415,
      "use": 3416,
      "unn": 3417,
      "uable": 3418,
      "use\"": 3419,
      "vit": 3420,
      "voice": 3421,
      "ways": 3422,
      "ySecurePass": 3423,
      "ytown": 3424,
      "yahoo": 3425,
      "ydn": 3426,
      "zy": 3427,
      "▁\"": 3428,
      "▁ome": 3429,
      "▁rea": 3430,
      "▁rated": 3431,
      "▁per": 3432,
      "▁ord": 3433,
      "▁zoom": 3434,
      "▁twitch.t": 3435,
      "▁slo": 3436,
      "▁slight": 3437,
      "▁sati": 3438,
      "▁craft": 3439,
      "▁crick": 3440,
      "eak": 3441,
      "eater": 3442,
      "eattle": 3443,
      "▁far": 3444,
      "▁fest": 3445,
      "▁funny": 3446,
      "▁fox": 3447,
      "▁flat": 3448,
      "orror": 3449,
      "tere": 3450,
      "inter": 3451,
      "info": 3452,
      "ckch": 3453,
      "change": 3454,
      "ex.smith": 3455,
      "one\"": 3456,
      "onation": 3457,
      "on't": 3458,
      "▁pm": 3459,
      "▁par": 3460,
      "▁pur": 3461,
      "▁pos": 3462,
      "ought": 3463,
      "ound": 3464,
      "review": 3465,
      "▁nasa.go": 3466,
      "like": 3467,
      "limate": 3468,
      "▁text\"": 3469,
      "▁text=\"you": 3470,
      "▁text=\"me": 3471,
      "▁text=\"en": 3472,
      "▁text=\"comment": 3473,
      "▁text=\"Hel": 3474,
      "▁text=\"app": 3475,
      "▁text=\"10": 3476,
      "▁text=\"apple": 3477,
      "▁text=\"un": 3478,
      "▁text=\"$50": 3479,
      "▁text=\"open": 3480,
      "▁text=\"info": 3481,
      "▁blo": 3482,
      "▁ban": 3483,
      "▁bbc": 3484,
      "▁brea": 3485,
      "▁bing.com": 3486,
      "▁baking": 3487,
      "▁bcc": 3488,
      "▁forget": 3489,
      "erry": 3490,
      "erlan": 3491,
      "▁inno": 3492,
      "▁invit": 3493,
      "▁intere": 3494,
      "ates": 3495,
      "atelli": 3496,
      "aby": 3497,
      "ttached": 3498,
      "itle": 3499,
      "ities": 3500,
      "itcoin": 3501,
      "itness": 3502,
      "ara": 3503,
      "ars": 3504,
      "arter": 3505,
      "set": 3506,
      "▁ado": 3507,
      "▁awesome": 3508,
      "▁affordable": 3509,
      "▁app\"": 3510,
      "▁attached": 3511,
      "ient": 3512,
      "▁navigation\"": 3513,
      "quora": 3514,
      "▁quest": 3515,
      "▁quora": 3516,
      "▁goes": 3517,
      "▁query=\"ti": 3518,
      "▁query=\"de": 3519,
      "▁query=\"affordable": 3520,
      "▁url=\"k": 3521,
      "▁url=\"book": 3522,
      "▁url=\"apple": 3523,
      "▁url=\"reddit.com\"": 3524,
      "▁url=\"zoom": 3525,
      "▁url=\"imdb.com\"": 3526,
      "▁url=\"bing.com\"": 3527,
      "▁url=\"twitch.t": 3528,
      "▁url=\"yahoo": 3529,
      "▁url=\"quora": 3530,
      "lly": 3531,
      "▁field=\"bc": 3532,
      "▁field=\"new": 3533,
      "▁field=\"review": 3534,
      "ss1234": 3535,
      "st\"": 3536,
      "street": 3537,
      "starter": 3538,
      "▁dis": 3539,
      "▁dra": 3540,
      "▁donate": 3541,
      "▁dates": 3542,
      "lected": 3543,
      "▁url=\"https://espn.com\"": 3544,
      "▁url=\"https://instagram.com\"": 3545,
      "▁url=\"https://netflix.com\"": 3546,
      "nthus": 3547,
      "▁paell": 3548,
      "▁pause": 3549,
      "▁pass1234": 3550,
      "tional": 3551,
      "gent": 3552,
      "ademy": 3553,
      "ardian": 3554,
      "▁hote": 3555,
      "▁hour": 3556,
      "▁healthy": 3557,
      "▁horror": 3558,
      "islike\"": 3559,
      "▁way": 3560,
      "▁lead": 3561,
      "▁lunch": 3562,
      "eekly": 3563,
      "ame\"": 3564,
      "amole": 3565,
      "▁url=\"https://www.bbc": 3566,
      "▁url=\"https://www.pinterest.com\"": 3567,
      "▁url=\"https://www.google.com\"": 3568,
      "▁up.": 3569,
      "ssword1": 3570,
      "el\"": 3571,
      "ay,": 3572,
      "ountain": 3573,
      "eatre": 3574,
      "▁vs": 3575,
      "▁val": 3576,
      "▁theater": 3577,
      "▁thought": 3578,
      "▁Special": 3579,
      "▁Sco": 3580,
      "▁Sydn": 3581,
      "▁ever": 3582,
      "▁electronic": 3583,
      "▁enthus": 3584,
      "demy": 3585,
      "▁Netflix": 3586,
      "▁NBA": 3587,
      "be.com": 3588,
      "▁back\"": 3589,
      "pal": 3590,
      ".google.com": 3591,
      "enver": 3592,
      "▁text=\"search": 3593,
      "▁text=\"sports\"": 3594,
      "▁can.": 3595,
      "▁cancel": 3596,
      "ecipe": 3597,
      "ecode": 3598,
      "▁York,": 3599,
      "utum": 3600,
      "▁News.": 3601,
      "password789": 3602,
      "▁text=\"Str": 3603,
      "▁text=\"Save": 3604,
      "▁text=\"Search\"": 3605,
      "▁text=\"Special": 3606,
      "▁chat\"": 3607,
      "▁stocks": 3608,
      "▁feedback123": 3609,
      "▁bbc.com/": 3610,
      "▁techguru": 3611,
      "▁I'm": 3612,
      "▁Meet": 3613,
      "▁Mars": 3614,
      "▁ABC123": 3615,
      "▁ASAP": 3616,
      "▁Airl": 3617,
      "▁Alph": 3618,
      "▁Amph": 3619,
      "▁Ca": 3620,
      "▁CSS": 3621,
      "▁Central": 3622,
      "▁CNN": 3623,
      "umps": 3624,
      "@example.org": 3625,
      "▁Pa": 3626,
      "▁P@ssw0rd": 3627,
      "▁Privacy": 3628,
      "▁Project": 3629,
      "▁PASSWORD": 3630,
      "feedback\"": 3631,
      "nu\"": 3632,
      "▁Looking": 3633,
      "▁Like": 3634,
      "▁Tech": 3635,
      "ree2023\"": 3636,
      "▁emails": 3637,
      "▁emails.": 3638,
      "▁number.": 3639,
      "▁UA100": 3640,
      "▁Unite": 3641,
      "▁privacy": 3642,
      "show": 3643,
      "olUser": 3644,
      "▁twee": 3645,
      "ipient": 3646,
      "▁hello1234": 3647,
      "▁Story": 3648,
      "▁Strong": 3649,
      "promo2023": 3650,
      "promo2023\"": 3651,
      "▁query=\"fun": 3652,
      "▁Denver": 3653,
      "▁selected": 3654,
      "▁today’s": 3655,
      "▁text=\"Looking": 3656,
      "▁comments": 3657,
      "▁restaurants.": 3658,
      "▁play?": 3659,
      "▁field=\"support": 3660,
      "ason": 3661,
      "▁query=\"spa": 3662,
      "▁In.": 3663,
      "▁Instagram": 3664,
      "▁Info": 3665,
      "▁Info\"": 3666,
      "pport\"": 3667,
      "▁James": 3668,
      "▁2C": 3669,
      "▁securePa": 3670,
      "▁securePassword123": 3671,
      "▁shop\"": 3672,
      "▁shoes": 3673,
      "▁update.": 3674,
      "ffee\"": 3675,
      "▁Follow": 3676,
      "▁text=\"hello1234\"": 3677,
      "▁text=\"hello123!\"": 3678,
      "▁query=\"healthy": 3679,
      "▁Wond": 3680,
      "▁Wall": 3681,
      "▁Way,": 3682,
      "ics.": 3683,
      "icial": 3684,
      "▁text=\"privacy": 3685,
      "▁topics.": 3686,
      "▁contact@company.com": 3687,
      "▁text=\"co": 3688,
      "▁text=\"canc": 3689,
      "▁text=\"feedback123\"": 3690,
      "ets\"": 3691,
      "▁field=\"search\"": 3692,
      "▁Blv": 3693,
      "▁story": 3694,
      "▁adventure": 3695,
      "▁admin": 3696,
      "▁text=\"P@ssw0rd": 3697,
      "▁text=\"Privacy": 3698,
      "▁text=\"Project": 3699,
      "▁text=\"PASSWORD": 3700,
      "▁world!": 3701,
      "▁world!\"": 3702,
      "▁delete": 3703,
      "ames.": 3704,
      "▁Ever": 3705,
      "▁jumps": 3706,
      "▁query=\"technology": 3707,
      "▁field=\"chat\"": 3708,
      "▁myfeedback": 3709,
      "▁myname": 3710,
      "▁mypassword2023": 3711,
      "ickstarter": 3712,
      "▁if": 3713,
      "▁ilove": 3714,
      "lette": 3715,
      "▁text=\"contact@company.com\"": 3716,
      "▁gmail.com,": 3717,
      "▁applic": 3718,
      "▁apply": 3719,
      "▁prices.": 3720,
      "▁text=\"more": 3721,
      "▁text=\"more\"": 3722,
      "▁text=\"meet": 3723,
      "▁Tesla?": 3724,
      "55555": 3725,
      "▁exchange": 3726,
      "▁next.": 3727,
      "▁10am": 3728,
      "▁10%OFF": 3729,
      "▁help!": 3730,
      "▁help!\"": 3731,
      "▁helpful": 3732,
      "▁20%": 3733,
      "▁20%OFF": 3734,
      "▁text=\"see": 3735,
      "▁text=\"setting": 3736,
      "▁reading": 3737,
      "academy": 3738,
      "acamole": 3739,
      "▁super": 3740,
      "▁stations": 3741,
      "▁stations\"": 3742,
      "▁text=\"myname": 3743,
      "▁text=\"mypassword2023\"": 3744,
      "▁text=\"myfeedback\"": 3745,
      "▁1234abc": 3746,
      "▁text=\"1234MainS": 3747,
      "▁text=\"1234abc": 3748,
      "▁section?": 3749,
      "▁url=\"http://wikipedia.org\"": 3750,
      "▁url=\"http://pinterest.com\"": 3751,
      "▁Hello!": 3752,
      "▁translation\"": 3753,
      "▁text=\"Hello!": 3754,
      "▁message.": 3755,
      "10\"": 3756,
      "▁2023?": 3757,
      "itheatre": 3758,
      "▁text=\"donate": 3759,
      "▁text=\"dislike\"": 3760,
      "▁56": 3761,
      "▁meeting\"": 3762,
      "▁online?": 3763,
      "rending\"": 3764,
      "▁text=\"Robert": 3765,
      "▁text=\"The": 3766,
      "▁Us?": 3767,
      "▁Holiday": 3768,
      "▁Hey": 3769,
      "▁Headlines\"": 3770,
      "▁NY.": 3771,
      "▁Welcome123": 3772,
      "▁text=\"Welcome123\"": 3773,
      "▁text=\"Welcome2023!\"": 3774,
      "▁987": 3775,
      "▁account": 3776,
      "▁sushi\"": 3777,
      "▁YouTube,": 3778,
      "▁YouTube?": 3779,
      "▁linkedin.com.": 3780,
      "▁free2023": 3781,
      "▁text=\"holiday": 3782,
      "▁gadgets.": 3783,
      "▁gadgets?": 3784,
      "iouscat": 3785,
      "▁text=\"securePa": 3786,
      "▁text=\"securePassword123\"": 3787,
      "▁jane_smith": 3788,
      "▁text=\"jane_smith\"": 3789,
      "▁cookies\"": 3790,
      "▁around": 3791,
      "▁text=\"987": 3792,
      "lyn,": 3793,
      "▁laptops\"": 3794,
      "▁change\"": 3795,
      "▁change.": 3796,
      "▁Robert": 3797,
      "▁books.": 3798,
      "▁booking.com": 3799,
      "▁Anytown": 3800,
      "▁Python.": 3801,
      "▁Python?": 3802,
      "▁text=\"free2023\"": 3803,
      "▁website\"": 3804,
      "▁website?": 3805,
      "ulation": 3806,
      "▁popup": 3807,
      "▁pie.": 3808,
      "▁query=\"remote": 3809,
      "▁places\"": 3810,
      "▁Inc\"": 3811,
      "▁text=\"News\"": 3812,
      "▁text=\"Hey": 3813,
      "▁text=\"Headlines\"": 3814,
      "▁broch": 3815,
      "▁birthday!": 3816,
      "▁birthday!\"": 3817,
      "▁happycustomer": 3818,
      "▁logout": 3819,
      "▁guacamole": 3820,
      "▁example@gmail.com": 3821,
      "▁tickets\"": 3822,
      "▁soon!": 3823,
      "▁soon!\"": 3824,
      "▁text=\"example@gmail.com\"": 3825,
      "▁vacation2023": 3826,
      "anslate.google.com\"": 3827,
      "▁it\"": 3828,
      "▁it!\"": 3829,
      "▁text=\"More": 3830,
      "▁text=\"Meet": 3831,
      "▁text=\"johnsmith\"": 3832,
      "▁text=\"super": 3833,
      "▁facebook.com?": 3834,
      "▁runn": 3835,
      "▁apple.com": 3836,
      "▁query=\"pancake": 3837,
      "▁layou": 3838,
      "▁lazy": 3839,
      "▁Thanks": 3840,
      "▁text=\"Thanks": 3841,
      "▁text=\"abc123": 3842,
      "▁hello123!": 3843,
      "▁text=\"logout\"": 3844,
      "▁Enjoy": 3845,
      "▁team\"": 3846,
      "guardian": 3847,
      "ongrat": 3848,
      "▁text=\"awesome": 3849,
      "▁text=\"delete": 3850,
      "erty": 3851,
      "▁asked": 3852,
      "bration": 3853,
      "dit\"": 3854,
      "iva": 3855,
      "ive\"": 3856,
      "▁day\"": 3857,
      "▁remote": 3858,
      "▁secretPassword123": 3859,
      "▁document.": 3860,
      "▁Englan": 3861,
      "cheduled": 3862,
      "▁text=\"vacation2023\"": 3863,
      "▁york": 3864,
      "▁yahoo": 3865,
      "▁sci-fi": 3866,
      "▁speak": 3867,
      "▁text=\"techguru": 3868,
      "▁jobs\"": 3869,
      "▁item.": 3870,
      "▁activities": 3871,
      "▁carbon": 3872,
      "▁thanks.": 3873,
      "▁translate.google.com": 3874,
      "▁securepass123": 3875,
      "▁ipsum\"": 3876,
      "▁text=\"securepass123\"": 3877,
      "▁text=\"secretPassword123\"": 3878,
      "▁beginners.": 3879,
      "unset": 3880,
      "▁404": 3881,
      "▁predic": 3882,
      "▁Top": 3883,
      "▁support@company.com": 3884,
      "▁Remind": 3885,
      "code": 3886,
      "▁$500": 3887,
      "▁$30": 3888,
      "▁month.": 3889,
      "▁query=\"NBA": 3890,
      "▁holiday2023": 3891,
      "▁everyone\"": 3892,
      "▁Christ": 3893,
      "▁offer": 3894,
      "▁offer\"": 3895,
      "▁official": 3896,
      "▁abc123XYZ": 3897,
      "▁article!": 3898,
      "▁article!\"": 3899,
      "7890": 3900,
      "▁save20": 3901,
      "▁save10": 3902,
      "▁Continue.": 3903,
      "▁enjoyed": 3904,
      "▁regards,": 3905,
      "▁profile\"": 3906,
      ".us\"": 3907,
      "unnyvale": 3908,
      "▁order2023": 3909,
      "▁text=\"ilove": 3910,
      "▁Summer2023": 3911,
      "▁text=\"Summer2023\"": 3912,
      "▁Details": 3913,
      "▁deliver": 3914,
      "▁Welcome2023!": 3915,
      "▁product\"": 3916,
      "securepassword": 3917,
      "securepassword\"": 3918,
      "▁text=\"support@company.com\"": 3919,
      "▁JavaScript.": 3920,
      "▁improv": 3921,
      "▁everyone!": 3922,
      "▁everyone!\"": 3923,
      "XYZ\"": 3924,
      "▁slideshow": 3925,
      "▁summer21": 3926,
      "▁text=\"compose": 3927,
      "▁text=\"pass1234\"": 3928,
      "▁text=\"passw0rd!\"": 3929,
      "▁url=\"translate.google.com\"": 3930,
      "▁text=\"shopping": 3931,
      "▁text=\"summer21\"": 3932,
      "▁hello.world@gmail.com": 3933,
      "▁text=\"hello.world@gmail.com\"": 3934,
      "▁myemail@example.com": 3935,
      "▁myemail@gmail.com": 3936,
      "▁mysecretpassword": 3937,
      "▁text=\"myemail@example.com\"": 3938,
      "▁text=\"myemail@gmail.com\"": 3939,
      "▁guest\"": 3940,
      "▁exploration.": 3941,
      "▁fantastic!\"": 3942,
      "▁url=\"https://www.amazon.com/deals\"": 3943,
      "APPY": 3944,
      "cats": 3945,
      "ift\"": 3946,
      "support@service": 3947,
      "▁special2023": 3948,
      "chael": 3949,
      "▁novels": 3950,
      "▁novels\"": 3951,
      "▁text=\"adventure": 3952,
      "▁text=\"user123\"": 3953,
      "▁blog\"": 3954,
      "▁unfollow": 3955,
      "▁unsubscribe": 3956,
      "▁user123": 3957,
      "▁dog\"": 3958,
      "▁resul": 3959,
      "▁rescheduled": 3960,
      "ssword!23": 3961,
      "▁editing": 3962,
      "desk@service": 3963,
      "enny": 3964,
      "ennif": 3965,
      "▁text=\"save20\"": 3966,
      "▁text=\"save10\"": 3967,
      "▁text=\"special2023\"": 3968,
      "▁AM\"": 3969,
      "▁Colorado": 3970,
      "▁Colorado\"": 3971,
      "▁Policy\"": 3972,
      "▁settings": 3973,
      "▁Parkway": 3974,
      "▁global": 3975,
      "▁garden\"": 3976,
      "▁JFK\"": 3977,
      "▁BA28": 3978,
      "▁3pm\"": 3979,
      "▁mySecret": 3980,
      "▁mySecurePassword123": 3981,
      "▁2025\"": 3982,
      "▁text=\"mysecretpassword\"": 3983,
      "▁text=\"mySecret": 3984,
      "▁text=\"mySecurePassword123\"": 3985,
      "▁cafes\"": 3986,
      "▁Update\"": 3987,
      "▁policy\"": 3988,
      "▁development\"": 3989,
      "▁quickly\"": 3990,
      "▁Japanese": 3991,
      "▁Japanese\"": 3992,
      "▁delivery\"": 3993,
      "▁Miami\"": 3994,
      "▁Trial\"": 3995,
      "▁Trial.": 3996,
      ".co.uk": 3997,
      ".co.uk\"": 3998,
      "@domain.com": 3999,
      "@domain.com\"": 4000,
      "▁avocado": 4001,
      "▁frameworks": 4002,
      "▁frameworks\"": 4003,
      "▁investment": 4004,
      "▁memberships\"": 4005,
      "lectronics\"": 4006,
      "▁presentation!": 4007,
      "▁presentation!\"": 4008,
      "▁football": 4009,
      "reenapple": 4010,
      "▁text=\"Enjoy": 4011,
      "▁text=\"edit\"": 4012,
      "▁text=\"great": 4013,
      "▁text=\"tweet\"": 4014,
      "▁text=\"pause\"": 4015,
      "▁text=\"20%OFF\"": 4016,
      "▁text=\"order2023\"": 4017,
      "▁always": 4018,
      "▁passw0rd!": 4019,
      "▁url=\"https://www.bbc.com/weather\"": 4020,
      "▁Spotify.": 4021,
      "▁Springfield": 4022,
      "▁strongpassword123": 4023,
      "▁text=\"strongpassword123\"": 4024,
      "▁week.": 4025,
      "▁productivity": 4026,
      "-654-3210": 4027,
      ".whatsapp": 4028,
      "2get1": 4029,
      "@workmail": 4030,
      "@helpdesk": 4031,
      "@website": 4032,
      "ALE": 4033,
      "B12CD": 4034,
      "Coder": 4035,
      "ERTY": 4036,
      "ECRET": 4037,
      "QWERTY": 4038,
      "Shipping": 4039,
      "Vacay": 4040,
      "bnb": 4041,
      "coursera.org\"": 4042,
      "ere's": 4043,
      "hanacademy": 4044,
      "nshine": 4045,
      "qwerty": 4046,
      "rooklyn,": 4047,
      "supersecret": 4048,
      "sfied!\"": 4049,
      "▁omelette": 4050,
      "▁really": 4051,
      "▁perfect": 4052,
      "▁order\"": 4053,
      "▁zoom.us": 4054,
      "▁twitch.tv": 4055,
      "▁slot": 4056,
      "▁slightly": 4057,
      "▁satisfied!\"": 4058,
      "▁cricket": 4059,
      "▁festiva": 4060,
      "ckchain": 4061,
      "▁park": 4062,
      "▁purcha": 4063,
      "▁posit": 4064,
      "▁nasa.gov": 4065,
      "▁text=\"your": 4066,
      "▁text=\"menu\"": 4067,
      "▁text=\"enjoy": 4068,
      "▁text=\"Help\"": 4069,
      "▁text=\"apply": 4070,
      "▁text=\"unfollow\"": 4071,
      "▁blockchain": 4072,
      "▁bbc.co.uk": 4073,
      "▁breakfast": 4074,
      "▁innov": 4075,
      "▁interested": 4076,
      "atellite": 4077,
      "▁adobe.com": 4078,
      "▁question": 4079,
      "▁quora.com": 4080,
      "▁query=\"tips": 4081,
      "▁query=\"delicious": 4082,
      "▁url=\"booking.com\"": 4083,
      "▁url=\"apple.com\"": 4084,
      "▁url=\"zoom.us\"": 4085,
      "▁url=\"twitch.tv\"": 4086,
      "▁url=\"yahoo.com\"": 4087,
      "▁url=\"quora.com\"": 4088,
      "▁field=\"bcc": 4089,
      "▁dislike": 4090,
      "▁dragon": 4091,
      "▁leader": 4092,
      "▁url=\"https://www.bbc.co.uk\"": 4093,
      "▁valuable": 4094,
      "▁Scott": 4095,
      "▁Sydney": 4096,
      "▁electronics": 4097,
      "▁enthusia": 4098,
      "ecodecam": 4099,
      "utumn": 4100,
      "▁text=\"Strong": 4101,
      "▁Airline": 4102,
      "▁Amphitheatre": 4103,
      "▁United": 4104,
      "olUserN": 4105,
      "▁Story\"": 4106,
      "▁StrongPassword123": 4107,
      "▁Wonderlan": 4108,
      "▁Wallaby": 4109,
      "▁text=\"cancel\"": 4110,
      "ames.bond": 4111,
      "▁text=\"settings\"": 4112,
      "▁1234abcd": 4113,
      "▁text=\"1234MainSt\"": 4114,
      "▁text=\"1234abcd\"": 4115,
      "▁text=\"holiday2023\"": 4116,
      "▁brochure": 4117,
      "▁running": 4118,
      "ongratulation": 4119,
      "▁text=\"delete\"": 4120,
      "▁yahoo.com": 4121,
      "▁text=\"techguru\"": 4122,
      "▁carbonara": 4123,
      "▁Christma": 4124,
      "▁improving": 4125,
      "hanacademy.org": 4126
    },
    "merges": [
      [
        "▁",
        "<"
      ],
      [
        "C",
        "M"
      ],
      [
        "D",
        ">"
      ],
      [
        "O",
        "S"
      ],
      [
        "T",
        ">"
      ],
      [
        "T",
        "T>"
      ],
      [
        "U",
        "TT>"
      ],
      [
        "▁<",
        "/"
      ],
      [
        "CM",
        "D>"
      ],
      [
        "OS",
        ">"
      ],
      [
        "▁",
        "t"
      ],
      [
        "\n",
        "<"
      ],
      [
        "B",
        "OS>"
      ],
      [
        "E",
        "OS>"
      ],
      [
        "▁<",
        "UTT>"
      ],
      [
        "▁<",
        "CMD>"
      ],
      [
        "▁<",
        "EOS>"
      ],
      [
        "UTT>",
        "\n<"
      ],
      [
        "▁</",
        "CMD>"
      ],
      [
        "▁</",
        "UTT>\n<"
      ],
      [
        "▁</UTT>\n<",
        "BOS>"
      ],
      [
        "=",
        "\""
      ],
      [
        "▁",
        "s"
      ],
      [
        "▁",
        "c"
      ],
      [
        "e",
        "a"
      ],
      [
        "▁",
        "f"
      ],
      [
        "o",
        "r"
      ],
      [
        "t",
        "e"
      ],
      [
        "i",
        "n"
      ],
      [
        "c",
        "k"
      ],
      [
        "o",
        "m"
      ],
      [
        "c",
        "h"
      ],
      [
        "e",
        "x"
      ],
      [
        "o",
        "n"
      ],
      [
        "p",
        "e"
      ],
      [
        "▁",
        "p"
      ],
      [
        "o",
        "u"
      ],
      [
        "r",
        "e"
      ],
      [
        "h",
        "e"
      ],
      [
        "c",
        "om"
      ],
      [
        "▁",
        "n"
      ],
      [
        "l",
        "i"
      ],
      [
        "ex",
        "t"
      ],
      [
        "▁t",
        "ext"
      ],
      [
        "▁text",
        "=\""
      ],
      [
        "ea",
        "r"
      ],
      [
        ".",
        "com"
      ],
      [
        "ear",
        "ch"
      ],
      [
        "▁c",
        "li"
      ],
      [
        "▁cli",
        "ck"
      ],
      [
        "▁",
        "b"
      ],
      [
        "p",
        "s"
      ],
      [
        "▁s",
        "earch"
      ],
      [
        "▁t",
        "y"
      ],
      [
        "▁ty",
        "pe"
      ],
      [
        "▁f",
        "or"
      ],
      [
        "▁t",
        "he"
      ],
      [
        "e",
        "r"
      ],
      [
        "i",
        "g"
      ],
      [
        "l",
        "d"
      ],
      [
        "▁",
        "u"
      ],
      [
        "▁",
        "in"
      ],
      [
        "a",
        "te"
      ],
      [
        "l",
        "o"
      ],
      [
        "▁t",
        "o"
      ],
      [
        "a",
        "b"
      ],
      [
        "t",
        "t"
      ],
      [
        "g",
        "o"
      ],
      [
        "i",
        "t"
      ],
      [
        "a",
        "r"
      ],
      [
        "s",
        "e"
      ],
      [
        "a",
        "v"
      ],
      [
        "▁",
        "a"
      ],
      [
        "i",
        "e"
      ],
      [
        "av",
        "ig"
      ],
      [
        "▁n",
        "avig"
      ],
      [
        "q",
        "u"
      ],
      [
        "▁",
        "qu"
      ],
      [
        "▁navig",
        "ate"
      ],
      [
        "y",
        "ou"
      ],
      [
        "▁",
        "go"
      ],
      [
        "t",
        "o"
      ],
      [
        ".com",
        "\""
      ],
      [
        "er",
        "y"
      ],
      [
        "c",
        "r"
      ],
      [
        "▁",
        "m"
      ],
      [
        "▁qu",
        "ery"
      ],
      [
        "▁query",
        "=\""
      ],
      [
        "▁",
        "you"
      ],
      [
        "r",
        "l"
      ],
      [
        "ie",
        "ld"
      ],
      [
        "▁u",
        "rl"
      ],
      [
        "▁url",
        "=\""
      ],
      [
        "▁f",
        "ield"
      ],
      [
        "o",
        "w"
      ],
      [
        "▁p",
        "l"
      ],
      [
        "a",
        "n"
      ],
      [
        "l",
        "l"
      ],
      [
        "w",
        "w"
      ],
      [
        "▁field",
        "=\""
      ],
      [
        "s",
        "s"
      ],
      [
        "re",
        "c"
      ],
      [
        "s",
        "t"
      ],
      [
        "▁",
        "d"
      ],
      [
        "▁s",
        "te"
      ],
      [
        "l",
        "e"
      ],
      [
        "a",
        "ck"
      ],
      [
        "/",
        "/"
      ],
      [
        ":",
        "//"
      ],
      [
        "h",
        "tt"
      ],
      [
        "▁url=\"",
        "htt"
      ],
      [
        "ea",
        "se"
      ],
      [
        "m",
        "a"
      ],
      [
        "▁pl",
        "ease"
      ],
      [
        "ps",
        "://"
      ],
      [
        "▁url=\"htt",
        "ps://"
      ],
      [
        "t",
        "i"
      ],
      [
        "▁t",
        "ab"
      ],
      [
        "n",
        "t"
      ],
      [
        "u",
        "b"
      ],
      [
        "▁p",
        "a"
      ],
      [
        "▁ste",
        "ps"
      ],
      [
        "o",
        "ll"
      ],
      [
        "▁s",
        "cr"
      ],
      [
        "▁scr",
        "oll"
      ],
      [
        "▁in",
        "to"
      ],
      [
        "ti",
        "on"
      ],
      [
        "w",
        "it"
      ],
      [
        "g",
        "e"
      ],
      [
        "2",
        "3"
      ],
      [
        "e",
        "w"
      ],
      [
        "▁",
        "o"
      ],
      [
        "a",
        "d"
      ],
      [
        "ar",
        "d"
      ],
      [
        "s",
        "\""
      ],
      [
        "w",
        "ard"
      ],
      [
        "▁",
        "h"
      ],
      [
        "▁",
        "on"
      ],
      [
        "e",
        "\""
      ],
      [
        "i",
        "s"
      ],
      [
        "▁steps",
        "="
      ],
      [
        "T",
        "ab"
      ],
      [
        "▁b",
        "u"
      ],
      [
        "ou",
        "ld"
      ],
      [
        "▁",
        "w"
      ],
      [
        "tt",
        "on"
      ],
      [
        "▁bu",
        "tton"
      ],
      [
        "0",
        "0"
      ],
      [
        "▁",
        "l"
      ],
      [
        "▁",
        "re"
      ],
      [
        "lo",
        "ad"
      ],
      [
        "1",
        "23"
      ],
      [
        "v",
        "e"
      ],
      [
        "▁pa",
        "ge"
      ],
      [
        "e",
        "e"
      ],
      [
        "a",
        "m"
      ],
      [
        "wit",
        "ch"
      ],
      [
        "i",
        "rec"
      ],
      [
        "▁s",
        "witch"
      ],
      [
        "irec",
        "tion"
      ],
      [
        "h",
        "t"
      ],
      [
        "w",
        "."
      ],
      [
        "ww",
        "w."
      ],
      [
        "▁url=\"https://",
        "www."
      ],
      [
        "i",
        "l"
      ],
      [
        "i",
        "pe"
      ],
      [
        "pe",
        "n"
      ],
      [
        "▁o",
        "pen"
      ],
      [
        "▁u",
        "p"
      ],
      [
        "▁c",
        "ould"
      ],
      [
        "w",
        "or"
      ],
      [
        "▁d",
        "irection"
      ],
      [
        "ow",
        "n"
      ],
      [
        "ss",
        "wor"
      ],
      [
        "sswor",
        "d"
      ],
      [
        "▁n",
        "ew"
      ],
      [
        "e",
        "l"
      ],
      [
        "ma",
        "il"
      ],
      [
        "a",
        "y"
      ],
      [
        "rec",
        "ipe"
      ],
      [
        "ou",
        "nt"
      ],
      [
        "re",
        "ss"
      ],
      [
        "▁a",
        "m"
      ],
      [
        "▁am",
        "ount"
      ],
      [
        "▁direction",
        "=\""
      ],
      [
        "▁amount",
        "="
      ],
      [
        "ea",
        "d"
      ],
      [
        "a",
        "p"
      ],
      [
        "ea",
        "t"
      ],
      [
        "b",
        "c"
      ],
      [
        "▁",
        "recipe"
      ],
      [
        "ee",
        "d"
      ],
      [
        "▁c",
        "o"
      ],
      [
        "▁",
        "v"
      ],
      [
        "o",
        "g"
      ],
      [
        "b",
        "ack"
      ],
      [
        "eed",
        "back"
      ],
      [
        "ma",
        "z"
      ],
      [
        "▁t",
        "h"
      ],
      [
        "maz",
        "on"
      ],
      [
        "he",
        "r"
      ],
      [
        "▁",
        "S"
      ],
      [
        "t",
        "\""
      ],
      [
        "▁for",
        "ward"
      ],
      [
        "F",
        "or"
      ],
      [
        "▁c",
        "lo"
      ],
      [
        "▁go",
        "For"
      ],
      [
        "▁clo",
        "se"
      ],
      [
        "▁goFor",
        "ward"
      ],
      [
        "t",
        "a"
      ],
      [
        "▁",
        "e"
      ],
      [
        "eat",
        "her"
      ],
      [
        "k",
        "e"
      ],
      [
        "te",
        "r"
      ],
      [
        "in",
        "g"
      ],
      [
        "d",
        "e"
      ],
      [
        "m",
        "e"
      ],
      [
        "▁",
        "N"
      ],
      [
        "p",
        "le"
      ],
      [
        "ub",
        "e"
      ],
      [
        "cr",
        "i"
      ],
      [
        "ig",
        "n"
      ],
      [
        "b",
        "e"
      ],
      [
        "s",
        "cri"
      ],
      [
        "ub",
        "scri"
      ],
      [
        "▁steps=",
        "1"
      ],
      [
        "c",
        "e"
      ],
      [
        "▁t",
        "ap"
      ],
      [
        "in",
        "d"
      ],
      [
        "o",
        "k"
      ],
      [
        "t",
        "ube"
      ],
      [
        "▁m",
        "e"
      ],
      [
        "▁h",
        "ead"
      ],
      [
        "c",
        "t"
      ],
      [
        "a",
        "t"
      ],
      [
        "r",
        "om"
      ],
      [
        "og",
        "le"
      ],
      [
        "▁b",
        "ack"
      ],
      [
        "B",
        "ack"
      ],
      [
        "▁go",
        "Back"
      ],
      [
        "p",
        "a"
      ],
      [
        "d",
        "d"
      ],
      [
        "▁b",
        "o"
      ],
      [
        "to",
        "ck"
      ],
      [
        "▁",
        "lo"
      ],
      [
        "▁re",
        "load"
      ],
      [
        ".",
        "go"
      ],
      [
        "d",
        "ex"
      ],
      [
        "▁n",
        "ow"
      ],
      [
        "▁in",
        "dex"
      ],
      [
        "▁switch",
        "Tab"
      ],
      [
        "▁index",
        "="
      ],
      [
        ".go",
        "ogle"
      ],
      [
        "2",
        "0"
      ],
      [
        "i",
        "x"
      ],
      [
        "u",
        "r"
      ],
      [
        "e",
        "n"
      ],
      [
        "▁l",
        "in"
      ],
      [
        "he",
        "l"
      ],
      [
        "▁",
        "Y"
      ],
      [
        "▁text=\"",
        "s"
      ],
      [
        "g",
        "ht"
      ],
      [
        "li",
        "ght"
      ],
      [
        "ig",
        "ht"
      ],
      [
        "st",
        "a"
      ],
      [
        "▁bo",
        "x"
      ],
      [
        "▁",
        "1"
      ],
      [
        "or",
        "k"
      ],
      [
        "▁p",
        "ress"
      ],
      [
        "▁c",
        "an"
      ],
      [
        "i",
        "a"
      ],
      [
        "▁w",
        "eather"
      ],
      [
        "▁lin",
        "k"
      ],
      [
        "e",
        "c"
      ],
      [
        "▁Y",
        "ork"
      ],
      [
        "rom",
        "o"
      ],
      [
        "u",
        "t"
      ],
      [
        "▁N",
        "ew"
      ],
      [
        "pa",
        "ssword"
      ],
      [
        "h",
        "n"
      ],
      [
        "o",
        "hn"
      ],
      [
        "d",
        "o"
      ],
      [
        "wit",
        "ter"
      ],
      [
        "▁d",
        "own"
      ],
      [
        "s",
        "er"
      ],
      [
        "is",
        "it"
      ],
      [
        "▁v",
        "isit"
      ],
      [
        "bc",
        ".com"
      ],
      [
        "n",
        "am"
      ],
      [
        "▁text=\"",
        "S"
      ],
      [
        "me",
        "nt"
      ],
      [
        "d",
        "own"
      ],
      [
        "▁new",
        "s"
      ],
      [
        "▁p",
        "ix"
      ],
      [
        "el",
        "s"
      ],
      [
        "▁pix",
        "els"
      ],
      [
        "r",
        "ight"
      ],
      [
        "▁c",
        "h"
      ],
      [
        "ex",
        "am"
      ],
      [
        "▁th",
        "is"
      ],
      [
        "exam",
        "ple"
      ],
      [
        "▁s",
        "tock"
      ],
      [
        "ate",
        "st"
      ],
      [
        "▁f",
        "eedback"
      ],
      [
        "hel",
        "lo"
      ],
      [
        "▁t",
        "e"
      ],
      [
        "a",
        "ke"
      ],
      [
        "I",
        "d"
      ],
      [
        "▁tab",
        "Id"
      ],
      [
        "▁close",
        "Tab"
      ],
      [
        "▁tabId",
        "="
      ],
      [
        "ar",
        "t"
      ],
      [
        "▁b",
        "bc.com"
      ],
      [
        "ubscri",
        "be"
      ],
      [
        "▁te",
        "ch"
      ],
      [
        "▁b",
        "y"
      ],
      [
        "▁m",
        "o"
      ],
      [
        "▁",
        "I"
      ],
      [
        "▁",
        "M"
      ],
      [
        "in",
        "e"
      ],
      [
        "b",
        "bc"
      ],
      [
        "▁",
        "A"
      ],
      [
        "on",
        "ta"
      ],
      [
        "▁amount=",
        "1"
      ],
      [
        "▁f",
        "ind"
      ],
      [
        "onta",
        "ct"
      ],
      [
        "▁",
        "C"
      ],
      [
        "ps",
        ".google"
      ],
      [
        "▁a",
        "dd"
      ],
      [
        "20",
        "23"
      ],
      [
        "bbc",
        ".com\""
      ],
      [
        "l",
        "s"
      ],
      [
        "▁pa",
        "ssword"
      ],
      [
        "u",
        "m"
      ],
      [
        "▁for",
        "m"
      ],
      [
        "d",
        "ay"
      ],
      [
        "a",
        "mazon"
      ],
      [
        "e",
        "st"
      ],
      [
        "@",
        "example"
      ],
      [
        "123",
        "4"
      ],
      [
        "▁a",
        "mazon"
      ],
      [
        "▁h",
        "it"
      ],
      [
        "amazon",
        ".com\""
      ],
      [
        "▁",
        "P"
      ],
      [
        "▁amazon",
        ".com"
      ],
      [
        "p",
        "\""
      ],
      [
        "▁n",
        "ear"
      ],
      [
        "m",
        "it"
      ],
      [
        "do",
        "e"
      ],
      [
        "▁open",
        "Tab"
      ],
      [
        "▁direction=\"",
        "down"
      ],
      [
        "▁direction=\"down",
        "\""
      ],
      [
        "a",
        "tion"
      ],
      [
        "g",
        "in"
      ],
      [
        "▁ste",
        "p"
      ],
      [
        "▁recipe",
        "s"
      ],
      [
        "f",
        "eedback"
      ],
      [
        "n",
        "u"
      ],
      [
        "t",
        "s"
      ],
      [
        "te",
        "en"
      ],
      [
        "ser",
        "nam"
      ],
      [
        "▁",
        "load"
      ],
      [
        "j",
        "ohn"
      ],
      [
        "▁tabId=",
        "nu"
      ],
      [
        "▁tabId=nu",
        "ll"
      ],
      [
        "i",
        "ce"
      ],
      [
        "o",
        "te"
      ],
      [
        "▁you",
        "tube"
      ],
      [
        "▁lo",
        "ok"
      ],
      [
        "▁",
        "L"
      ],
      [
        "▁",
        "T"
      ],
      [
        "g",
        "mail"
      ],
      [
        "you",
        "tube"
      ],
      [
        "password",
        "\""
      ],
      [
        "▁mo",
        "ve"
      ],
      [
        "youtube",
        ".com\""
      ],
      [
        "▁youtube",
        ".com"
      ],
      [
        "ou",
        "r"
      ],
      [
        "▁co",
        "d"
      ],
      [
        "b",
        "er"
      ],
      [
        "▁field=\"",
        "password\""
      ],
      [
        "▁co",
        "de"
      ],
      [
        "i",
        "de"
      ],
      [
        "re",
        "e"
      ],
      [
        "▁f",
        "light"
      ],
      [
        "ide",
        "o"
      ],
      [
        "o",
        "c"
      ],
      [
        "ear",
        "n"
      ],
      [
        "▁page",
        "s"
      ],
      [
        "▁cod",
        "e\""
      ],
      [
        "▁w",
        "ould"
      ],
      [
        "▁e",
        "mail"
      ],
      [
        "n",
        "n"
      ],
      [
        "▁n",
        "um"
      ],
      [
        "▁qu",
        "ote"
      ],
      [
        "▁num",
        "ber"
      ],
      [
        "▁f",
        "i"
      ],
      [
        "▁recipe",
        "s\""
      ],
      [
        "or",
        "e"
      ],
      [
        "▁",
        "U"
      ],
      [
        "▁p",
        "r"
      ],
      [
        "123",
        "\""
      ],
      [
        "s",
        "h"
      ],
      [
        "e",
        "mail"
      ],
      [
        "▁button",
        "."
      ],
      [
        "o",
        "l"
      ],
      [
        "or",
        "ia"
      ],
      [
        "ut",
        "oria"
      ],
      [
        "▁t",
        "utoria"
      ],
      [
        "re",
        "nt"
      ],
      [
        "ur",
        "rent"
      ],
      [
        "▁t",
        "r"
      ],
      [
        "v",
        "er"
      ],
      [
        "▁v",
        "ideo"
      ],
      [
        "'",
        "s"
      ],
      [
        "▁t",
        "w"
      ],
      [
        "s",
        "l"
      ],
      [
        "ub",
        "mit"
      ],
      [
        "l",
        "ine"
      ],
      [
        "▁field=\"",
        "email"
      ],
      [
        "i",
        "p"
      ],
      [
        "▁s",
        "ubscribe"
      ],
      [
        "ou",
        "t"
      ],
      [
        "▁b",
        "ar"
      ],
      [
        "▁b",
        "est"
      ],
      [
        "▁in",
        "p"
      ],
      [
        "▁",
        "hello"
      ],
      [
        "ur",
        "an"
      ],
      [
        "sta",
        "uran"
      ],
      [
        "ar",
        "t\""
      ],
      [
        "ad",
        "d"
      ],
      [
        "be",
        "st"
      ],
      [
        "5",
        "0"
      ],
      [
        "w",
        "eather"
      ],
      [
        "▁S",
        "t"
      ],
      [
        "▁o",
        "ver"
      ],
      [
        "▁l",
        "atest"
      ],
      [
        "b",
        "e\""
      ],
      [
        "▁s",
        "ign"
      ],
      [
        "n",
        "d"
      ],
      [
        "ubscri",
        "be\""
      ],
      [
        "▁s",
        "h"
      ],
      [
        "▁now",
        "\""
      ],
      [
        "i",
        "r"
      ],
      [
        "p",
        "romo"
      ],
      [
        "▁p",
        "romo"
      ],
      [
        "▁query=\"",
        "f"
      ],
      [
        "▁query=\"",
        "best"
      ],
      [
        ".",
        "doe"
      ],
      [
        "▁m",
        "a"
      ],
      [
        "▁m",
        "ind"
      ],
      [
        "▁page",
        "?"
      ],
      [
        "p",
        "ple"
      ],
      [
        "▁t",
        "witter"
      ],
      [
        "a",
        "st"
      ],
      [
        "▁",
        "D"
      ],
      [
        "▁query=\"f",
        "light"
      ],
      [
        "u",
        "p\""
      ],
      [
        "▁",
        "right"
      ],
      [
        "▁twitter",
        ".com"
      ],
      [
        "▁d",
        "ea"
      ],
      [
        "▁field=\"email",
        "\""
      ],
      [
        "t",
        "witter"
      ],
      [
        "▁s",
        "e"
      ],
      [
        "▁re",
        "stauran"
      ],
      [
        "twitter",
        ".com\""
      ],
      [
        "a",
        "in"
      ],
      [
        "g",
        "an"
      ],
      [
        "or",
        "e\""
      ],
      [
        "ve",
        "gan"
      ],
      [
        "▁add",
        "ress"
      ],
      [
        "▁quote",
        "s"
      ],
      [
        "▁for",
        "ec"
      ],
      [
        "▁forec",
        "ast"
      ],
      [
        "▁to",
        "day"
      ],
      [
        "▁index=",
        "1"
      ],
      [
        "▁f",
        "our"
      ],
      [
        "▁query=\"",
        "weather"
      ],
      [
        "▁c",
        "om"
      ],
      [
        "▁text=\"",
        "L"
      ],
      [
        "l",
        "ay"
      ],
      [
        "▁pa",
        "sta"
      ],
      [
        "▁h",
        "ow"
      ],
      [
        "▁direction=\"",
        "up\""
      ],
      [
        "▁box",
        "\""
      ],
      [
        "t",
        "h"
      ],
      [
        "▁P",
        "ar"
      ],
      [
        "ve",
        "n"
      ],
      [
        "▁url=\"https://www.",
        "bbc.com\""
      ],
      [
        "▁field=\"",
        "promo"
      ],
      [
        "i",
        "k"
      ],
      [
        "▁",
        "g"
      ],
      [
        "le",
        "f"
      ],
      [
        "▁com",
        "ment"
      ],
      [
        "!",
        "\""
      ],
      [
        "v",
        "ie"
      ],
      [
        "▁c",
        "urrent"
      ],
      [
        "com",
        "ment"
      ],
      [
        "▁head",
        "line"
      ],
      [
        "▁restauran",
        "ts"
      ],
      [
        "▁pl",
        "ay"
      ],
      [
        "▁direction=\"",
        "right"
      ],
      [
        "▁direction=\"right",
        "\""
      ],
      [
        "▁field=\"",
        "comment"
      ],
      [
        "ma",
        "ps.google"
      ],
      [
        "▁o",
        "f"
      ],
      [
        "▁url=\"https://www.",
        "amazon.com\""
      ],
      [
        "maps.google",
        ".com\""
      ],
      [
        "z",
        "ip"
      ],
      [
        "li",
        "an"
      ],
      [
        "ta",
        "lian"
      ],
      [
        "john",
        ".doe"
      ],
      [
        "▁s",
        "er"
      ],
      [
        "ps.google",
        ".com"
      ],
      [
        "▁ma",
        "ps.google.com"
      ],
      [
        "▁ser",
        "v"
      ],
      [
        "▁p",
        "x"
      ],
      [
        "▁lo",
        "gin"
      ],
      [
        "2023",
        "\""
      ],
      [
        "f",
        "re"
      ],
      [
        "om",
        "e"
      ],
      [
        "▁dea",
        "ls"
      ],
      [
        "▁field=\"",
        "feedback"
      ],
      [
        "at",
        "ch"
      ],
      [
        "@example",
        ".com"
      ],
      [
        "@example",
        ".com\""
      ],
      [
        "oc",
        "ol"
      ],
      [
        "fre",
        "sh"
      ],
      [
        "ocol",
        "ate"
      ],
      [
        "▁re",
        "fresh"
      ],
      [
        "▁A",
        "pple"
      ],
      [
        "or",
        "ld"
      ],
      [
        "▁field=\"",
        "s"
      ],
      [
        "▁tutoria",
        "ls"
      ],
      [
        "a",
        "s"
      ],
      [
        "▁query=\"",
        "s"
      ],
      [
        "me",
        "s"
      ],
      [
        "▁M",
        "ain"
      ],
      [
        "▁form",
        "\""
      ],
      [
        "sernam",
        "e"
      ],
      [
        "▁query=\"s",
        "tock"
      ],
      [
        "l",
        "atest"
      ],
      [
        "▁I",
        "n"
      ],
      [
        "p",
        "p"
      ],
      [
        "▁text=\"s",
        "ign"
      ],
      [
        "d",
        "ate"
      ],
      [
        "▁",
        "J"
      ],
      [
        "▁u",
        "s"
      ],
      [
        "▁",
        "2"
      ],
      [
        "he",
        "ck"
      ],
      [
        "▁s",
        "ec"
      ],
      [
        "▁sh",
        "o"
      ],
      [
        "▁c",
        "art"
      ],
      [
        "gmail",
        ".com"
      ],
      [
        "r",
        "ow"
      ],
      [
        "▁url=\"https://www.",
        "youtube.com\""
      ],
      [
        "▁up",
        "date"
      ],
      [
        "s",
        ".google"
      ],
      [
        "an",
        "sl"
      ],
      [
        "▁query=\"",
        "latest"
      ],
      [
        "▁url=\"https://",
        "maps.google.com\""
      ],
      [
        "▁York",
        "\""
      ],
      [
        "▁text=\"S",
        "ign"
      ],
      [
        "f",
        "f"
      ],
      [
        "i",
        "z"
      ],
      [
        "r",
        "ead"
      ],
      [
        "z",
        "a"
      ],
      [
        "▁inp",
        "ut"
      ],
      [
        "iz",
        "za"
      ],
      [
        "▁u",
        "sername"
      ],
      [
        "▁field=\"",
        "add"
      ],
      [
        "▁field=\"add",
        "ress"
      ],
      [
        "▁",
        "F"
      ],
      [
        "▁text=\"",
        "hello"
      ],
      [
        "an",
        "e"
      ],
      [
        "▁field=\"",
        "u"
      ],
      [
        "ti",
        "mes"
      ],
      [
        "el",
        "com"
      ],
      [
        "▁flight",
        "s"
      ],
      [
        "▁pr",
        "ice"
      ],
      [
        "▁field=\"address",
        "\""
      ],
      [
        "▁query=\"",
        "h"
      ],
      [
        "▁query=\"",
        "to"
      ],
      [
        "sernam",
        "e\""
      ],
      [
        "▁",
        "W"
      ],
      [
        "▁I",
        "talian"
      ],
      [
        "▁serv",
        "ice"
      ],
      [
        "▁text=\"",
        "C"
      ],
      [
        ".",
        "or"
      ],
      [
        "▁m",
        "ore"
      ],
      [
        "1234",
        "5"
      ],
      [
        "▁field=\"u",
        "sername\""
      ],
      [
        "elcom",
        "e"
      ],
      [
        ".or",
        "g"
      ],
      [
        "on",
        "d"
      ],
      [
        "▁ch",
        "ocolate"
      ],
      [
        "▁query=\"h",
        "ow"
      ],
      [
        "H",
        "el"
      ],
      [
        "i",
        "c"
      ],
      [
        "▁text=\"",
        "p"
      ],
      [
        "▁text=\"",
        "lo"
      ],
      [
        "gmail",
        ".com\""
      ],
      [
        "b",
        "y"
      ],
      [
        "ar",
        "ke"
      ],
      [
        "y",
        "times"
      ],
      [
        "▁text=\"",
        "A"
      ],
      [
        "▁to",
        "p"
      ],
      [
        "Hel",
        "lo"
      ],
      [
        "arke",
        "t"
      ],
      [
        "d",
        "ia"
      ],
      [
        "▁",
        "is"
      ],
      [
        "▁c",
        "ontact"
      ],
      [
        "▁text=\"",
        "c"
      ],
      [
        "▁text=\"",
        "feedback"
      ],
      [
        "ipe",
        "dia"
      ],
      [
        "▁D",
        "o"
      ],
      [
        "ik",
        "ipedia"
      ],
      [
        "e",
        "t"
      ],
      [
        "▁e",
        "n"
      ],
      [
        "▁m",
        "arket"
      ],
      [
        "▁steps",
        "?"
      ],
      [
        "▁headline",
        "s"
      ],
      [
        "▁field=\"s",
        "earch"
      ],
      [
        "ikipedia",
        ".org"
      ],
      [
        "te",
        "ch"
      ],
      [
        "ate",
        "d"
      ],
      [
        "ansl",
        "ation"
      ],
      [
        "ff",
        "ee"
      ],
      [
        "▁",
        "vegan"
      ],
      [
        "▁N",
        "ow"
      ],
      [
        "lay",
        "\""
      ],
      [
        "▁you",
        "r"
      ],
      [
        "▁text=\"s",
        "ubscribe\""
      ],
      [
        "c",
        "nn"
      ],
      [
        "▁",
        "ab"
      ],
      [
        "▁c",
        "ake"
      ],
      [
        "▁c",
        "heck"
      ],
      [
        "▁please",
        "."
      ],
      [
        "▁url=\"https://",
        "bbc.com\""
      ],
      [
        "▁bar",
        "\""
      ],
      [
        "cnn",
        ".com\""
      ],
      [
        "▁f",
        "rom"
      ],
      [
        "▁St",
        "ree"
      ],
      [
        "a",
        "ge"
      ],
      [
        "▁c",
        "nn"
      ],
      [
        "▁p",
        "izza"
      ],
      [
        "▁m",
        "e\""
      ],
      [
        "as",
        "a"
      ],
      [
        "▁cnn",
        ".com"
      ],
      [
        "l",
        "s\""
      ],
      [
        "y",
        "o"
      ],
      [
        "▁s",
        "ix"
      ],
      [
        "an",
        "ce"
      ],
      [
        "▁th",
        "ir"
      ],
      [
        "ok",
        "yo"
      ],
      [
        "▁text=\"A",
        "dd"
      ],
      [
        "▁",
        "B"
      ],
      [
        "▁s",
        "t"
      ],
      [
        "▁text=\"",
        "J"
      ],
      [
        "it",
        "y"
      ],
      [
        "▁T",
        "okyo"
      ],
      [
        "▁text=\"lo",
        "gin"
      ],
      [
        "u",
        "y"
      ],
      [
        "▁a",
        "d"
      ],
      [
        "ge",
        "t"
      ],
      [
        "5",
        "00"
      ],
      [
        "▁text=\"",
        "P"
      ],
      [
        "▁page",
        ","
      ],
      [
        "▁link",
        "."
      ],
      [
        "▁text=\"login",
        "\""
      ],
      [
        "g",
        "n"
      ],
      [
        "▁",
        "3"
      ],
      [
        "on",
        "e"
      ],
      [
        "▁a",
        "t"
      ],
      [
        "▁w",
        "orld"
      ],
      [
        "▁co",
        "ffee"
      ],
      [
        "▁C",
        "art\""
      ],
      [
        "asa",
        "gn"
      ],
      [
        "asagn",
        "a"
      ],
      [
        "▁d",
        "e"
      ],
      [
        "ke",
        "d"
      ],
      [
        "▁ab",
        "out"
      ],
      [
        "v",
        "ance"
      ],
      [
        "▁m",
        "ake"
      ],
      [
        "▁url=\"https://",
        "twitter.com\""
      ],
      [
        "▁h",
        "ome"
      ],
      [
        "am",
        "e"
      ],
      [
        "▁en",
        "ter"
      ],
      [
        "▁ad",
        "vance"
      ],
      [
        "u",
        "re"
      ],
      [
        "▁",
        "E"
      ],
      [
        "▁m",
        "ore\""
      ],
      [
        "an",
        "c"
      ],
      [
        "▁l",
        "asagna"
      ],
      [
        "▁ch",
        "at"
      ],
      [
        "▁step",
        "?"
      ],
      [
        "▁pages",
        "?"
      ],
      [
        "▁",
        "j"
      ],
      [
        "▁on",
        "e"
      ],
      [
        "▁new",
        "s\""
      ],
      [
        "▁query=\"",
        "tech"
      ],
      [
        "▁field=\"",
        "ch"
      ],
      [
        "▁fi",
        "f"
      ],
      [
        "▁query=\"to",
        "p"
      ],
      [
        "2",
        "00"
      ],
      [
        "h",
        "one"
      ],
      [
        "▁m",
        "y"
      ],
      [
        "▁url=\"https://",
        "amazon.com\""
      ],
      [
        "▁Par",
        "is"
      ],
      [
        "a",
        "l"
      ],
      [
        "▁in",
        "\""
      ],
      [
        "▁box",
        "."
      ],
      [
        "▁text=\"S",
        "ubscribe\""
      ],
      [
        "▁near",
        "by"
      ],
      [
        "▁field=\"ch",
        "at"
      ],
      [
        "6",
        "00"
      ],
      [
        "▁n",
        "ine"
      ],
      [
        "▁u",
        "s\""
      ],
      [
        "le",
        "ct"
      ],
      [
        "▁l",
        "earn"
      ],
      [
        "▁direction",
        "s"
      ],
      [
        "▁th",
        "ree"
      ],
      [
        "▁e",
        "ight"
      ],
      [
        "▁fi",
        "ve"
      ],
      [
        "▁tw",
        "o"
      ],
      [
        "▁query=\"flight",
        "s"
      ],
      [
        "▁se",
        "ven"
      ],
      [
        "t",
        "r"
      ],
      [
        "▁down",
        "load"
      ],
      [
        "4",
        "00"
      ],
      [
        "7",
        "00"
      ],
      [
        "8",
        "00"
      ],
      [
        "9",
        "00"
      ],
      [
        "e",
        "sl"
      ],
      [
        "u",
        "t\""
      ],
      [
        "▁t",
        "en"
      ],
      [
        "▁s",
        "ubmit"
      ],
      [
        "▁query=\"",
        "c"
      ],
      [
        "▁url=\"https://",
        "youtube.com\""
      ],
      [
        "▁sho",
        "ps"
      ],
      [
        "esl",
        "a"
      ],
      [
        "i",
        "ck"
      ],
      [
        "n",
        "ew"
      ],
      [
        "▁",
        "i"
      ],
      [
        "▁n",
        "ame"
      ],
      [
        "▁inp",
        "ut\""
      ],
      [
        "ked",
        "in"
      ],
      [
        "▁",
        "lef"
      ],
      [
        "▁",
        "zip"
      ],
      [
        "ub",
        "j"
      ],
      [
        "ee",
        "t"
      ],
      [
        "▁direction=\"",
        "lef"
      ],
      [
        "ap",
        "p"
      ],
      [
        "▁index=",
        "2"
      ],
      [
        "nam",
        "e\""
      ],
      [
        "▁lef",
        "t"
      ],
      [
        "▁direction=\"lef",
        "t\""
      ],
      [
        "u",
        "s"
      ],
      [
        "▁",
        "john.doe"
      ],
      [
        "▁field=\"",
        "name\""
      ],
      [
        "▁d",
        "oc"
      ],
      [
        "le",
        "t"
      ],
      [
        "vie",
        "w"
      ],
      [
        "e",
        "nt"
      ],
      [
        "o",
        "ok"
      ],
      [
        "p",
        "an"
      ],
      [
        "r",
        "am"
      ],
      [
        "▁",
        "hel"
      ],
      [
        "▁c",
        "art\""
      ],
      [
        "ss",
        "age"
      ],
      [
        "le",
        "ven"
      ],
      [
        "el",
        "ve"
      ],
      [
        "▁e",
        "leven"
      ],
      [
        "▁tw",
        "elve"
      ],
      [
        "▁four",
        "teen"
      ],
      [
        "▁text=\"c",
        "ontact"
      ],
      [
        "▁thir",
        "teen"
      ],
      [
        "▁fif",
        "teen"
      ],
      [
        "r",
        "eat"
      ],
      [
        "n",
        "ch"
      ],
      [
        "o",
        "d"
      ],
      [
        "p",
        "tion"
      ],
      [
        "▁",
        "gmail.com"
      ],
      [
        "lo",
        "w"
      ],
      [
        "▁a",
        "pp"
      ],
      [
        "▁field=\"",
        "zip"
      ],
      [
        "▁o",
        "ption"
      ],
      [
        "▁price",
        "s"
      ],
      [
        "app",
        "y"
      ],
      [
        "a",
        "ce"
      ],
      [
        "i",
        "s\""
      ],
      [
        "▁text=\"",
        "m"
      ],
      [
        "▁text=\"",
        "john.doe"
      ],
      [
        "▁recipe",
        "\""
      ],
      [
        "password",
        "123\""
      ],
      [
        "▁M",
        "ore\""
      ],
      [
        "▁U",
        "s\""
      ],
      [
        "▁text=\"C",
        "ontact"
      ],
      [
        "P",
        "a"
      ],
      [
        "▁text=\"",
        "W"
      ],
      [
        "▁S",
        "ign"
      ],
      [
        "mit",
        "h"
      ],
      [
        "▁T",
        "esla"
      ],
      [
        "▁se",
        "lect"
      ],
      [
        "▁text=\"L",
        "og"
      ],
      [
        "▁text=\"",
        "D"
      ],
      [
        "▁text=\"",
        "add"
      ],
      [
        "▁url=\"https://www.",
        "cnn.com\""
      ],
      [
        "▁me",
        "."
      ],
      [
        "▁mo",
        "vie"
      ],
      [
        "5",
        "5"
      ],
      [
        "l",
        "m"
      ],
      [
        "▁",
        "ex"
      ],
      [
        "▁c",
        "on"
      ],
      [
        "▁steps=",
        "2"
      ],
      [
        "▁steps=",
        "3"
      ],
      [
        "▁steps=",
        "4"
      ],
      [
        "▁steps=",
        "5"
      ],
      [
        "▁steps=",
        "6"
      ],
      [
        "▁steps=",
        "7"
      ],
      [
        "▁steps=",
        "8"
      ],
      [
        "▁steps=",
        "9"
      ],
      [
        "load",
        "\""
      ],
      [
        "▁steps=1",
        "0"
      ],
      [
        "▁steps=1",
        "1"
      ],
      [
        "▁steps=1",
        "2"
      ],
      [
        "▁steps=1",
        "3"
      ],
      [
        "▁steps=1",
        "4"
      ],
      [
        "▁steps=1",
        "5"
      ],
      [
        "ubmit",
        "\""
      ],
      [
        "▁Par",
        "is\""
      ],
      [
        "▁E",
        "lm"
      ],
      [
        "3",
        "00"
      ],
      [
        "s",
        "."
      ],
      [
        "▁n",
        "ext"
      ],
      [
        "▁query=\"",
        "vegan"
      ],
      [
        "▁1",
        "0"
      ],
      [
        "john",
        "doe"
      ],
      [
        "▁Now",
        "\""
      ],
      [
        "▁hel",
        "p"
      ],
      [
        "▁th",
        "at"
      ],
      [
        "ir",
        "th"
      ],
      [
        "irth",
        "day"
      ],
      [
        "▁",
        "wit"
      ],
      [
        "▁text=\"",
        "down"
      ],
      [
        "00",
        "0"
      ],
      [
        "irection",
        "s\""
      ],
      [
        "▁wit",
        "h"
      ],
      [
        "e",
        "ct"
      ],
      [
        "i",
        "ated"
      ],
      [
        "▁",
        "20"
      ],
      [
        "or",
        "row"
      ],
      [
        "om",
        "orrow"
      ],
      [
        "▁text=\"",
        "se"
      ],
      [
        "rec",
        "iated"
      ],
      [
        "▁In",
        "\""
      ],
      [
        "ond",
        "on"
      ],
      [
        "▁app",
        "reciated"
      ],
      [
        "c",
        "s.google"
      ],
      [
        "i",
        "te"
      ],
      [
        "▁",
        "read"
      ],
      [
        "▁b",
        "row"
      ],
      [
        "▁tab",
        "?"
      ],
      [
        "do",
        "cs.google"
      ],
      [
        "▁J",
        "ohn"
      ],
      [
        "s.google",
        ".com"
      ],
      [
        "▁doc",
        "s.google.com"
      ],
      [
        "docs.google",
        ".com\""
      ],
      [
        "a",
        "c"
      ],
      [
        "b",
        "ook"
      ],
      [
        "c",
        "al"
      ],
      [
        "o",
        "in"
      ],
      [
        "▁t",
        "ie"
      ],
      [
        "ea",
        "s"
      ],
      [
        "▁a",
        "nd"
      ],
      [
        "▁C",
        "ity"
      ],
      [
        "▁text=\"p",
        "lay\""
      ],
      [
        "▁st",
        "art"
      ],
      [
        "n",
        "ytimes"
      ],
      [
        "▁t",
        "omorrow"
      ],
      [
        "▁s",
        "u"
      ],
      [
        "▁s",
        "ta"
      ],
      [
        "▁text=\"",
        "j"
      ],
      [
        "▁query=\"",
        "tr"
      ],
      [
        "▁w",
        "e"
      ],
      [
        "▁url=\"https://www.",
        "twitter.com\""
      ],
      [
        "▁up",
        "\""
      ],
      [
        "▁L",
        "ondon"
      ],
      [
        "▁text=\"m",
        "y"
      ],
      [
        "nytimes",
        ".com\""
      ],
      [
        "g",
        "is"
      ],
      [
        "l",
        "in"
      ],
      [
        "n",
        "er"
      ],
      [
        "▁",
        "1234"
      ],
      [
        "▁text=\"",
        "1234"
      ],
      [
        "is",
        "h"
      ],
      [
        "▁bu",
        "y"
      ],
      [
        "▁tutoria",
        "ls\""
      ],
      [
        "▁sec",
        "tion"
      ],
      [
        "gis",
        "ter"
      ],
      [
        "p",
        "://"
      ],
      [
        "▁",
        "123"
      ],
      [
        "▁field",
        "."
      ],
      [
        "an",
        "k"
      ],
      [
        "▁url=\"htt",
        "p://"
      ],
      [
        "▁M",
        "ore"
      ],
      [
        "▁text=\"L",
        "earn"
      ],
      [
        "▁query=\"c",
        "urrent"
      ],
      [
        "▁brow",
        "ser"
      ],
      [
        "a",
        "il"
      ],
      [
        "▁",
        "Hello"
      ],
      [
        "pa",
        "ge"
      ],
      [
        "ol",
        "low"
      ],
      [
        "▁tr",
        "anslation"
      ],
      [
        "▁home",
        "page"
      ],
      [
        "▁sta",
        "t"
      ],
      [
        "@",
        "gmail.com"
      ],
      [
        "@",
        "gmail.com\""
      ],
      [
        "u",
        "p"
      ],
      [
        "w",
        "ikipedia.org"
      ],
      [
        "▁",
        "7"
      ],
      [
        "▁text=\"",
        "123"
      ],
      [
        "▁text=\"",
        "Hello"
      ],
      [
        "is",
        "c"
      ],
      [
        "▁S",
        "pan"
      ],
      [
        "▁me",
        "ssage"
      ],
      [
        "▁U",
        "p\""
      ],
      [
        "▁g",
        "ad"
      ],
      [
        "▁Do",
        "e"
      ],
      [
        "▁Do",
        "e\""
      ],
      [
        "wikipedia.org",
        "\""
      ],
      [
        "▁Span",
        "ish"
      ],
      [
        "p",
        "hone"
      ],
      [
        "ou",
        "t\""
      ],
      [
        "▁S",
        "t\""
      ],
      [
        "▁A",
        "dd"
      ],
      [
        "▁text=\"J",
        "ohn"
      ],
      [
        "1",
        "0"
      ],
      [
        "1",
        "00"
      ],
      [
        "▁",
        "12345"
      ],
      [
        "▁text=\"",
        "l"
      ],
      [
        "▁text=\"",
        "w"
      ],
      [
        "▁co",
        "ok"
      ],
      [
        "▁C",
        "art"
      ],
      [
        "▁tr",
        "ail"
      ],
      [
        "▁today",
        "\""
      ],
      [
        "eas",
        "y"
      ],
      [
        "▁stat",
        "us"
      ],
      [
        "s",
        "p"
      ],
      [
        "▁",
        "G"
      ],
      [
        "▁n",
        "ytimes"
      ],
      [
        "▁text=\"",
        "b"
      ],
      [
        "▁query=\"",
        "ch"
      ],
      [
        "▁url=\"https://",
        "docs.google.com\""
      ],
      [
        "▁w",
        "ikipedia.org"
      ],
      [
        "▁re",
        "view"
      ],
      [
        "ay",
        "s"
      ],
      [
        "▁me",
        "?"
      ],
      [
        "▁nytimes",
        ".com"
      ],
      [
        "r",
        "ea"
      ],
      [
        "▁",
        "2023"
      ],
      [
        "▁",
        "2023\""
      ],
      [
        "▁c",
        "a"
      ],
      [
        "▁text=\"",
        "12345"
      ],
      [
        "▁you",
        "?"
      ],
      [
        "▁please",
        "?"
      ],
      [
        "▁w",
        "atch"
      ],
      [
        "ia",
        "l"
      ],
      [
        "▁quote",
        "s\""
      ],
      [
        "▁update",
        "s"
      ],
      [
        "▁Stree",
        "t"
      ],
      [
        "▁Stree",
        "t\""
      ],
      [
        "ure",
        "Pa"
      ],
      [
        "▁t",
        "ake"
      ],
      [
        "▁s",
        "ays"
      ],
      [
        "it",
        "h"
      ],
      [
        "▁l",
        "ap"
      ],
      [
        "ace",
        "book"
      ],
      [
        "▁query=\"tr",
        "anslation"
      ],
      [
        "▁text=\"b",
        "uy"
      ],
      [
        "▁lap",
        "to"
      ],
      [
        "h",
        "at"
      ],
      [
        "t",
        "in"
      ],
      [
        "re",
        "nch"
      ],
      [
        "en",
        "d"
      ],
      [
        "▁password",
        "123"
      ],
      [
        "▁video",
        "\""
      ],
      [
        "▁today",
        "'s"
      ],
      [
        "tin",
        "u"
      ],
      [
        "ch",
        "e"
      ],
      [
        "re",
        "t"
      ],
      [
        "▁text=\"",
        "password123\""
      ],
      [
        "▁url=\"https://www.",
        "nytimes.com\""
      ],
      [
        "▁S",
        "ubscribe"
      ],
      [
        "▁recipes",
        "."
      ],
      [
        "▁F",
        "rench"
      ],
      [
        "▁Tokyo",
        "\""
      ],
      [
        "▁john.doe",
        "@example.com"
      ],
      [
        "▁text=\"john.doe",
        "@example.com\""
      ],
      [
        "▁text=\"l",
        "earn"
      ],
      [
        "ith",
        "ub"
      ],
      [
        "▁",
        "let"
      ],
      [
        "ea",
        "p"
      ],
      [
        "▁text=\"",
        "B"
      ],
      [
        "▁amount=",
        "200"
      ],
      [
        "ta",
        "il"
      ],
      [
        "▁L",
        "earn"
      ],
      [
        "▁U",
        "p"
      ],
      [
        "▁Apple",
        "\""
      ],
      [
        "▁W",
        "orld"
      ],
      [
        "▁check",
        "out"
      ],
      [
        "ac",
        "ation"
      ],
      [
        "sp",
        "n"
      ],
      [
        "▁text=\"",
        "d"
      ],
      [
        "▁go",
        "ing"
      ],
      [
        "▁password",
        "."
      ],
      [
        "lin",
        "kedin"
      ],
      [
        "g",
        "ram"
      ],
      [
        "k",
        "e\""
      ],
      [
        "o",
        "on"
      ],
      [
        "r",
        "anc"
      ],
      [
        "▁",
        "5"
      ],
      [
        "in",
        "ation"
      ],
      [
        "av",
        "el"
      ],
      [
        "▁m",
        "eet"
      ],
      [
        "▁on",
        "line"
      ],
      [
        "▁S",
        "an"
      ],
      [
        "sta",
        "gram"
      ],
      [
        "▁C",
        "ontact"
      ],
      [
        "day",
        "'s"
      ],
      [
        "▁L",
        "A"
      ],
      [
        "▁tw",
        "ent"
      ],
      [
        "ik",
        "ing"
      ],
      [
        "▁headline",
        "s\""
      ],
      [
        "▁F",
        "ranc"
      ],
      [
        "▁we",
        "b"
      ],
      [
        "isc",
        "o"
      ],
      [
        "linkedin",
        ".com\""
      ],
      [
        "▁twent",
        "y"
      ],
      [
        "▁Franc",
        "isco"
      ],
      [
        "p",
        "l"
      ],
      [
        "p",
        "o"
      ],
      [
        "▁",
        "out"
      ],
      [
        "re",
        "nd"
      ],
      [
        "▁text=\"",
        "R"
      ],
      [
        "▁query=\"",
        "recipe"
      ],
      [
        "▁h",
        "iking"
      ],
      [
        "ve",
        "nt"
      ],
      [
        "▁amount=",
        "7"
      ],
      [
        "▁text=\"s",
        "ubmit\""
      ],
      [
        "▁ch",
        "an"
      ],
      [
        "sh",
        "i"
      ],
      [
        "▁text=\"P",
        "lay\""
      ],
      [
        "▁text=\"down",
        "load\""
      ],
      [
        "r",
        "ated"
      ],
      [
        "in",
        "\""
      ],
      [
        "ou",
        "T"
      ],
      [
        "com",
        "ing"
      ],
      [
        "li",
        "c"
      ],
      [
        "▁text=\"",
        "G"
      ],
      [
        "▁text=\"",
        "T"
      ],
      [
        "▁b",
        "ake"
      ],
      [
        "ate",
        "r"
      ],
      [
        "▁amount=",
        "2"
      ],
      [
        "▁Y",
        "ouT"
      ],
      [
        "▁text=\"s",
        "ubscribe"
      ],
      [
        "ec",
        "t\""
      ],
      [
        "▁U",
        "s"
      ],
      [
        "▁address",
        "."
      ],
      [
        "anc",
        "ake"
      ],
      [
        "f",
        "li"
      ],
      [
        "m",
        "art"
      ],
      [
        "▁t",
        "rend"
      ],
      [
        "ie",
        "w"
      ],
      [
        "▁code",
        "."
      ],
      [
        "ic",
        "e\""
      ],
      [
        "et",
        "fli"
      ],
      [
        "▁world",
        "\""
      ],
      [
        "ubj",
        "ect"
      ],
      [
        "ubj",
        "ect\""
      ],
      [
        "▁let",
        "'s"
      ],
      [
        "etfli",
        "x"
      ],
      [
        "-",
        "rated"
      ],
      [
        "2",
        "10"
      ],
      [
        "h",
        "ank"
      ],
      [
        "i",
        "st"
      ],
      [
        "n",
        "o"
      ],
      [
        "y",
        "th"
      ],
      [
        "▁",
        "H"
      ],
      [
        "▁",
        "li"
      ],
      [
        "▁s",
        "mart"
      ],
      [
        "▁p",
        "ancake"
      ],
      [
        "ssword",
        "123"
      ],
      [
        "▁N",
        "Y"
      ],
      [
        "▁pr",
        "od"
      ],
      [
        "▁W",
        "elcome"
      ],
      [
        "▁text=\"W",
        "elcome"
      ],
      [
        "▁text=\"12345",
        "\""
      ],
      [
        "yth",
        "on"
      ],
      [
        "▁prod",
        "u"
      ],
      [
        "▁",
        "9"
      ],
      [
        "▁s",
        "ome"
      ],
      [
        "▁text=\"",
        "N"
      ],
      [
        "▁d",
        "est"
      ],
      [
        "▁news",
        "."
      ],
      [
        "▁de",
        "tail"
      ],
      [
        "▁dest",
        "ination"
      ],
      [
        "a",
        "le"
      ],
      [
        "e",
        "le"
      ],
      [
        "i",
        "ou"
      ],
      [
        "s",
        "mith"
      ],
      [
        "▁",
        "johndoe"
      ],
      [
        "▁s",
        "end"
      ],
      [
        "in",
        "ner"
      ],
      [
        "▁search",
        "ing"
      ],
      [
        "▁a",
        "c"
      ],
      [
        "▁d",
        "inner"
      ],
      [
        "▁tab",
        ","
      ],
      [
        "▁w",
        "hat"
      ],
      [
        "▁lin",
        "kedin"
      ],
      [
        "▁text=\"p",
        "lay"
      ],
      [
        "▁text=\"D",
        "own"
      ],
      [
        "▁su",
        "shi"
      ],
      [
        "▁YouT",
        "ube"
      ],
      [
        "▁smart",
        "phone"
      ],
      [
        "▁linkedin",
        ".com"
      ],
      [
        "▁f",
        "ree"
      ],
      [
        "re",
        "st"
      ],
      [
        "▁text=\"",
        "h"
      ],
      [
        "▁text=\"",
        "st"
      ],
      [
        "ge",
        "ts"
      ],
      [
        "▁sec",
        "ond"
      ],
      [
        "▁gad",
        "gets"
      ],
      [
        "▁text=\"w",
        "atch"
      ],
      [
        "▁trail",
        "s"
      ],
      [
        "iou",
        "s"
      ],
      [
        "2",
        "4"
      ],
      [
        "i",
        "an"
      ],
      [
        "▁",
        "our"
      ],
      [
        "▁t",
        "i"
      ],
      [
        "▁text=\"",
        "read"
      ],
      [
        "▁b",
        "e"
      ],
      [
        "▁query=\"",
        "n"
      ],
      [
        "▁query=\"",
        "new"
      ],
      [
        "▁S",
        "mith"
      ],
      [
        "▁lo",
        "cal"
      ],
      [
        "▁sign",
        "-"
      ],
      [
        "▁g",
        "reat"
      ],
      [
        "▁text=\"se",
        "c"
      ],
      [
        "urePa",
        "ss"
      ],
      [
        "▁",
        "V"
      ],
      [
        "▁s",
        "ubject"
      ],
      [
        "on",
        "tinu"
      ],
      [
        "ext",
        "\""
      ],
      [
        "▁text=\"",
        "johndoe"
      ],
      [
        "▁url=\"https://www.",
        "wikipedia.org\""
      ],
      [
        "▁tr",
        "avel"
      ],
      [
        "▁forecast",
        "\""
      ],
      [
        "▁update",
        "s\""
      ],
      [
        "▁query=\"to",
        "day's"
      ],
      [
        "▁j",
        "ane"
      ],
      [
        "▁text=\"Log",
        "in\""
      ],
      [
        "▁appreciated",
        "\""
      ],
      [
        "▁text=\"j",
        "ane"
      ],
      [
        "I",
        "talian"
      ],
      [
        "or",
        "t"
      ],
      [
        "te",
        "d"
      ],
      [
        "▁text=\"",
        "n"
      ],
      [
        "▁the",
        "re"
      ],
      [
        "ar",
        "ian"
      ],
      [
        "▁query=\"",
        "Italian"
      ],
      [
        "▁url=\"",
        "amazon.com\""
      ],
      [
        "ve",
        "get"
      ],
      [
        "▁url=\"https://www.",
        "gmail.com\""
      ],
      [
        "▁youtube.com",
        "?"
      ],
      [
        "▁field=\"s",
        "ubject\""
      ],
      [
        "pp",
        "ing"
      ],
      [
        "▁input",
        "."
      ],
      [
        "▁Tesla",
        "\""
      ],
      [
        "▁movie",
        "s"
      ],
      [
        "55",
        "5"
      ],
      [
        "▁ex",
        "pl"
      ],
      [
        "▁City",
        "\""
      ],
      [
        "▁cook",
        "ie"
      ],
      [
        "▁text=\"d",
        "irections\""
      ],
      [
        "▁produ",
        "ct"
      ],
      [
        "veget",
        "arian"
      ],
      [
        "s",
        "ite"
      ],
      [
        "▁",
        "ar"
      ],
      [
        "▁c",
        "rea"
      ],
      [
        "▁text=\"",
        "9"
      ],
      [
        "▁text=\"",
        "che"
      ],
      [
        "av",
        "e"
      ],
      [
        "▁url=\"",
        "bbc.com\""
      ],
      [
        "▁open",
        "ing"
      ],
      [
        "▁v",
        "iew"
      ],
      [
        "▁amount=1",
        "00"
      ],
      [
        "▁youtube.com",
        "."
      ],
      [
        "▁dea",
        "ls\""
      ],
      [
        "▁serv",
        "ice\""
      ],
      [
        "▁text=\"W",
        "atch"
      ],
      [
        "▁text=\"D",
        "irections\""
      ],
      [
        "▁query=\"recipe",
        "s"
      ],
      [
        "▁li",
        "ke"
      ],
      [
        "▁crea",
        "te"
      ],
      [
        "▁text=\"che",
        "ck"
      ],
      [
        "F",
        "F"
      ],
      [
        "O",
        "FF"
      ],
      [
        "l",
        "y"
      ],
      [
        "m",
        "ing"
      ],
      [
        "r",
        "d"
      ],
      [
        "▁",
        "50"
      ],
      [
        "ear",
        "by"
      ],
      [
        "lo",
        "g"
      ],
      [
        "lo",
        "cal"
      ],
      [
        "ab",
        "ele"
      ],
      [
        "▁query=\"",
        "local"
      ],
      [
        "▁l",
        "abele"
      ],
      [
        "▁amount=",
        "500"
      ],
      [
        "og",
        "ram"
      ],
      [
        "▁index=",
        "5"
      ],
      [
        "▁ch",
        "ip"
      ],
      [
        "▁P",
        "M"
      ],
      [
        "▁fi",
        "ll"
      ],
      [
        "▁pr",
        "ogram"
      ],
      [
        "▁tr",
        "ial"
      ],
      [
        "▁hello",
        "@example.com"
      ],
      [
        "▁sho",
        "pping"
      ],
      [
        "▁text=\"hello",
        "@example.com\""
      ],
      [
        "▁B",
        "irthday"
      ],
      [
        "new",
        "s\""
      ],
      [
        "▁lapto",
        "ps"
      ],
      [
        "▁text=\"B",
        "uy"
      ],
      [
        "lic",
        "ious"
      ],
      [
        "▁query=\"n",
        "earby"
      ],
      [
        "▁text=\"check",
        "out\""
      ],
      [
        "▁labele",
        "d"
      ],
      [
        "▁program",
        "ming"
      ],
      [
        "l",
        "ease"
      ],
      [
        "o",
        "s"
      ],
      [
        "▁amount=",
        "300"
      ],
      [
        "▁now",
        "."
      ],
      [
        "▁1",
        "5"
      ],
      [
        "password",
        "123"
      ],
      [
        "▁text=\"S",
        "ubmit\""
      ],
      [
        "▁amazon.com",
        "."
      ],
      [
        "▁2",
        "5"
      ],
      [
        "▁nearby",
        "\""
      ],
      [
        "▁London",
        "\""
      ],
      [
        "ollow",
        "\""
      ],
      [
        "▁text=\"R",
        "ead"
      ],
      [
        "▁chan",
        "ge"
      ],
      [
        "0",
        "210"
      ],
      [
        "8",
        "7"
      ],
      [
        "b",
        "bc.com"
      ],
      [
        "m",
        "er"
      ],
      [
        "u",
        "nch"
      ],
      [
        "▁",
        "R"
      ],
      [
        "▁",
        "easy"
      ],
      [
        "▁b",
        "read"
      ],
      [
        "▁in",
        "f"
      ],
      [
        "ar",
        "ted"
      ],
      [
        "▁a",
        "re"
      ],
      [
        "▁query=\"",
        "easy"
      ],
      [
        "▁pl",
        "an"
      ],
      [
        "wor",
        "ld"
      ],
      [
        "▁e",
        "vent"
      ],
      [
        "▁bo",
        "ok"
      ],
      [
        "▁York",
        "."
      ],
      [
        "▁bbc.com",
        "?"
      ],
      [
        "▁A",
        "n"
      ],
      [
        "um",
        "mer"
      ],
      [
        "1234",
        "\""
      ],
      [
        "▁P",
        "ython"
      ],
      [
        "▁amazon.com",
        "?"
      ],
      [
        "▁email",
        "."
      ],
      [
        "nn",
        "y"
      ],
      [
        "pp",
        "ort"
      ],
      [
        "▁J",
        "ane"
      ],
      [
        "et",
        "'s"
      ],
      [
        "▁text=\"J",
        "ane"
      ],
      [
        "ick",
        "en"
      ],
      [
        "▁john.doe",
        "@gmail.com"
      ],
      [
        "▁text=\"john.doe",
        "@gmail.com\""
      ],
      [
        "▁20",
        "24"
      ],
      [
        "▁text=\"se",
        "nd"
      ],
      [
        "▁ca",
        "ke\""
      ],
      [
        "▁NY",
        "C"
      ],
      [
        "▁be",
        "gin"
      ],
      [
        "▁query=\"new",
        "s"
      ],
      [
        "bbc.com",
        "/"
      ],
      [
        "g",
        "h"
      ],
      [
        "g",
        "ithub"
      ],
      [
        "te",
        "rest"
      ],
      [
        "pe",
        "c"
      ],
      [
        "ou",
        "gh"
      ],
      [
        "▁text=\"",
        "f"
      ],
      [
        "▁query=\"",
        "A"
      ],
      [
        "▁url=\"",
        "youtube.com\""
      ],
      [
        "▁index=",
        "0"
      ],
      [
        "▁index=",
        "4"
      ],
      [
        "▁index=",
        "6"
      ],
      [
        "▁text=\"s",
        "ubmit"
      ],
      [
        "▁amount=1",
        "50"
      ],
      [
        "▁amount=1",
        "000"
      ],
      [
        "▁form",
        "."
      ],
      [
        "▁tomorrow",
        "\""
      ],
      [
        "▁text=\"Hello",
        ","
      ],
      [
        "▁web",
        "site"
      ],
      [
        "▁ac",
        "ti"
      ],
      [
        "github",
        ".com\""
      ],
      [
        "6",
        "5"
      ],
      [
        "B",
        "C"
      ],
      [
        "D",
        "o"
      ],
      [
        "d",
        "ough"
      ],
      [
        "k",
        "ing"
      ],
      [
        "r",
        "st"
      ],
      [
        "u",
        "l"
      ],
      [
        "▁",
        "get"
      ],
      [
        "▁s",
        "our"
      ],
      [
        "▁f",
        "ollow"
      ],
      [
        "in",
        "terest"
      ],
      [
        "▁p",
        "o"
      ],
      [
        "▁p",
        "ie"
      ],
      [
        "▁text=\"",
        "hel"
      ],
      [
        "▁click",
        "ing"
      ],
      [
        "se",
        "c"
      ],
      [
        "▁query=\"",
        "re"
      ],
      [
        "▁pl",
        "ace"
      ],
      [
        "ge",
        "le"
      ],
      [
        "▁l",
        "ater"
      ],
      [
        "▁re",
        "gister"
      ],
      [
        "▁page",
        "."
      ],
      [
        "▁url=\"https://www.",
        "linkedin.com\""
      ],
      [
        "ssword",
        "123\""
      ],
      [
        "ec",
        "urePass"
      ],
      [
        "▁text=\"S",
        "ubscribe"
      ],
      [
        "▁tabId=",
        "2"
      ],
      [
        "▁tabId=",
        "3"
      ],
      [
        "▁I",
        "D"
      ],
      [
        "▁fi",
        "rst"
      ],
      [
        "▁video",
        "s"
      ],
      [
        "▁sh",
        "ut"
      ],
      [
        "▁In",
        "c"
      ],
      [
        "▁username",
        "."
      ],
      [
        "eet",
        "ing"
      ],
      [
        "▁text=\"down",
        "load"
      ],
      [
        "▁Hello",
        ","
      ],
      [
        "▁text=\"G",
        "reat"
      ],
      [
        "no",
        "log"
      ],
      [
        "▁text=\"N",
        "ew"
      ],
      [
        "▁what",
        "'s"
      ],
      [
        "▁text=\"Down",
        "load\""
      ],
      [
        "▁sign-",
        "up"
      ],
      [
        "▁An",
        "gele"
      ],
      [
        "▁sour",
        "dough"
      ],
      [
        "nolog",
        "y"
      ],
      [
        "3",
        "0"
      ],
      [
        "e",
        "spn"
      ],
      [
        "or",
        "y"
      ],
      [
        "▁text=\"",
        "H"
      ],
      [
        "▁text=\"",
        "re"
      ],
      [
        "▁b",
        "r"
      ],
      [
        "▁b",
        "irthday"
      ],
      [
        "▁url=\"",
        "maps.google.com\""
      ],
      [
        "ll",
        "ent"
      ],
      [
        "▁field=\"",
        "c"
      ],
      [
        "▁h",
        "appy"
      ],
      [
        "▁w",
        "elcome"
      ],
      [
        "▁S",
        "ubmit"
      ],
      [
        "▁e",
        "spn"
      ],
      [
        "ce",
        "llent"
      ],
      [
        "▁lo",
        "g"
      ],
      [
        "▁ch",
        "eap"
      ],
      [
        "▁bbc.com",
        "."
      ],
      [
        "▁amount=1",
        "500"
      ],
      [
        "▁amazon.com",
        ","
      ],
      [
        "▁L",
        "os"
      ],
      [
        "▁sh",
        "ow"
      ],
      [
        "▁g",
        "u"
      ],
      [
        "▁service",
        "!\""
      ],
      [
        "▁ex",
        "cellent"
      ],
      [
        "gister",
        "\""
      ],
      [
        "▁Spanish",
        "\""
      ],
      [
        "▁query=\"ch",
        "eap"
      ],
      [
        "▁French",
        "\""
      ],
      [
        "▁text=\"h",
        "appy"
      ],
      [
        "▁text=\"n",
        "ext\""
      ],
      [
        "bbc.com/",
        "news\""
      ],
      [
        "Do",
        "e"
      ],
      [
        "espn",
        ".com\""
      ],
      [
        "▁espn",
        ".com"
      ],
      [
        ".",
        "smith"
      ],
      [
        "4",
        "5"
      ],
      [
        "@",
        "com"
      ],
      [
        "o",
        "\""
      ],
      [
        "o",
        "ve"
      ],
      [
        "r",
        "y"
      ],
      [
        "▁",
        "example"
      ],
      [
        "▁t",
        "er"
      ],
      [
        "▁t",
        "ick"
      ],
      [
        "▁s",
        "oon"
      ],
      [
        "▁f",
        "acebook"
      ],
      [
        "pe",
        "r"
      ],
      [
        "▁n",
        "oon"
      ],
      [
        "▁text=\"",
        "example"
      ],
      [
        "▁v",
        "acation"
      ],
      [
        "▁index=",
        "3"
      ],
      [
        "▁index=",
        "7"
      ],
      [
        "▁1",
        "600"
      ],
      [
        "▁news",
        "let"
      ],
      [
        "▁feedback",
        "\""
      ],
      [
        "▁tech",
        "nology"
      ],
      [
        "▁A",
        "mazon"
      ],
      [
        "weather",
        ".com\""
      ],
      [
        "nd",
        "ar"
      ],
      [
        "▁g",
        "ithub"
      ],
      [
        "ansl",
        "ate"
      ],
      [
        "▁text=\"C",
        "heck"
      ],
      [
        "▁text=\"feedback",
        "\""
      ],
      [
        "▁thir",
        "d"
      ],
      [
        "▁shops",
        "\""
      ],
      [
        "pan",
        "y"
      ],
      [
        "▁G",
        "o"
      ],
      [
        "▁amount=7",
        "50"
      ],
      [
        "▁text=\"st",
        "art"
      ],
      [
        "▁V",
        "ideo"
      ],
      [
        "555",
        "-"
      ],
      [
        "▁expl",
        "ore"
      ],
      [
        "87",
        "65"
      ],
      [
        "▁query=\"re",
        "stauran"
      ],
      [
        "▁place",
        "s"
      ],
      [
        "45",
        "6"
      ],
      [
        "@com",
        "pany"
      ],
      [
        "▁ter",
        "m"
      ],
      [
        "▁newslet",
        "ter"
      ],
      [
        "▁github",
        ".com"
      ],
      [
        "a",
        "ssword123"
      ],
      [
        "f",
        "t"
      ],
      [
        "f",
        "acebook"
      ],
      [
        "▁",
        "k"
      ],
      [
        "▁",
        "he"
      ],
      [
        "▁",
        "it"
      ],
      [
        "▁",
        "ic"
      ],
      [
        "▁",
        "500"
      ],
      [
        "▁",
        "600"
      ],
      [
        "▁",
        "400"
      ],
      [
        "▁",
        "700"
      ],
      [
        "▁",
        "800"
      ],
      [
        "▁",
        "900"
      ],
      [
        "▁c",
        "ur"
      ],
      [
        "in",
        "stagram"
      ],
      [
        "▁text=\"",
        "M"
      ],
      [
        "▁text=\"",
        "john"
      ],
      [
        "▁text=\"",
        "promo"
      ],
      [
        "▁text=\"",
        "view"
      ],
      [
        "▁in",
        "stagram"
      ],
      [
        "▁query=\"",
        "up"
      ],
      [
        "▁up",
        "coming"
      ],
      [
        "▁amount=",
        "5"
      ],
      [
        "▁amount=",
        "20"
      ],
      [
        "▁amount=",
        "50"
      ],
      [
        "▁amount=",
        "600"
      ],
      [
        "▁amount=",
        "400"
      ],
      [
        "▁amount=",
        "700"
      ],
      [
        "▁amount=",
        "800"
      ],
      [
        "▁amount=",
        "900"
      ],
      [
        "▁amount=",
        "30"
      ],
      [
        "▁text=\"s",
        "u"
      ],
      [
        "▁1",
        "00"
      ],
      [
        "▁1",
        "50"
      ],
      [
        "▁1",
        "500"
      ],
      [
        "▁1",
        "200"
      ],
      [
        "▁1",
        "400"
      ],
      [
        "▁1",
        "700"
      ],
      [
        "▁1",
        "800"
      ],
      [
        "▁1",
        "900"
      ],
      [
        "▁1",
        "300"
      ],
      [
        "▁1",
        "000"
      ],
      [
        "▁1",
        "100"
      ],
      [
        "▁weather",
        ".com"
      ],
      [
        "▁amount=1",
        "0"
      ],
      [
        "▁amount=1",
        "5"
      ],
      [
        "▁amount=1",
        "200"
      ],
      [
        "▁amount=1",
        "600"
      ],
      [
        "▁amount=1",
        "400"
      ],
      [
        "▁amount=1",
        "700"
      ],
      [
        "▁amount=1",
        "800"
      ],
      [
        "▁amount=1",
        "900"
      ],
      [
        "▁amount=1",
        "300"
      ],
      [
        "▁amount=1",
        "100"
      ],
      [
        "▁text=\"sign",
        "-"
      ],
      [
        "▁2",
        "00"
      ],
      [
        "▁2",
        "50"
      ],
      [
        "▁2",
        "000"
      ],
      [
        "▁W",
        "atch"
      ],
      [
        "▁3",
        "0"
      ],
      [
        "▁3",
        "00"
      ],
      [
        "▁7",
        "5"
      ],
      [
        "▁7",
        "50"
      ],
      [
        "▁gad",
        "get"
      ],
      [
        "▁query=\"ch",
        "ocolate"
      ],
      [
        "▁you?",
        "\""
      ],
      [
        "▁lapto",
        "p"
      ],
      [
        "▁amount=200",
        "0"
      ],
      [
        "▁Francisco",
        "\""
      ],
      [
        "▁amount=7",
        "5"
      ],
      [
        "▁amount=2",
        "5"
      ],
      [
        "▁amount=2",
        "50"
      ],
      [
        "▁destination",
        "s"
      ],
      [
        "ontinu",
        "e\""
      ],
      [
        "▁query=\"A",
        "pple"
      ],
      [
        "▁facebook",
        ".com"
      ],
      [
        "▁text=\"Check",
        "out\""
      ],
      [
        "facebook",
        ".com\""
      ],
      [
        "▁he",
        "re"
      ],
      [
        "▁ic",
        "on"
      ],
      [
        "instagram",
        ".com\""
      ],
      [
        "▁instagram",
        ".com"
      ],
      [
        "▁query=\"up",
        "coming"
      ],
      [
        "%",
        "OFF"
      ],
      [
        "7",
        "8"
      ],
      [
        "_",
        "doe"
      ],
      [
        "e",
        "ts"
      ],
      [
        "f",
        "e"
      ],
      [
        "▁",
        "r"
      ],
      [
        "▁s",
        "ite"
      ],
      [
        "or",
        "d"
      ],
      [
        "▁n",
        "etflix"
      ],
      [
        "earch",
        "\""
      ],
      [
        "▁a",
        "pple"
      ],
      [
        "▁query=\"",
        "p"
      ],
      [
        "▁l",
        "a"
      ],
      [
        "do",
        "e\""
      ],
      [
        "▁T",
        "hank"
      ],
      [
        "▁number",
        "\""
      ],
      [
        "▁D",
        "own"
      ],
      [
        "▁top",
        "-rated"
      ],
      [
        "▁lasagna",
        "\""
      ],
      [
        "▁j",
        "oin"
      ],
      [
        "▁query=\"top",
        "-rated"
      ],
      [
        "▁i",
        "d"
      ],
      [
        "▁online",
        "."
      ],
      [
        "po",
        "se"
      ],
      [
        "▁text=\"T",
        "hank"
      ],
      [
        "▁detail",
        "s"
      ],
      [
        "▁Inc",
        "."
      ],
      [
        "▁tick",
        "ets"
      ],
      [
        "▁cur",
        "ry"
      ],
      [
        "▁netflix",
        ".com"
      ],
      [
        "n",
        "etflix"
      ],
      [
        "▁p",
        "hone"
      ],
      [
        "▁text=\"",
        "F"
      ],
      [
        "▁text=\"",
        "ab"
      ],
      [
        "er",
        "ts"
      ],
      [
        "▁navig",
        "at"
      ],
      [
        "▁url=\"",
        "twitter.com\""
      ],
      [
        "▁field=\"",
        "phone"
      ],
      [
        "▁steps",
        ","
      ],
      [
        "▁h",
        "ist"
      ],
      [
        "▁button",
        "?"
      ],
      [
        "▁re",
        "g"
      ],
      [
        "▁url=\"https://www.",
        "bbc.com/news\""
      ],
      [
        "ing",
        "\""
      ],
      [
        "▁ch",
        "icken"
      ],
      [
        "▁step",
        ","
      ],
      [
        "▁tr",
        "y"
      ],
      [
        "▁hello",
        "123"
      ],
      [
        "▁promo",
        "2023"
      ],
      [
        "▁restauran",
        "t"
      ],
      [
        "▁today",
        "."
      ],
      [
        "▁maps.google.com",
        "?"
      ],
      [
        "▁price",
        "s\""
      ],
      [
        "▁text=\"lo",
        "g"
      ],
      [
        "▁headlines",
        "."
      ],
      [
        "▁B",
        "uy"
      ],
      [
        "▁option",
        "."
      ],
      [
        "▁text=\"j",
        "oin"
      ],
      [
        "▁section",
        "."
      ],
      [
        "▁text=\"w",
        "elcome"
      ],
      [
        "▁ar",
        "ea"
      ],
      [
        "▁text=\"f",
        "ollow\""
      ],
      [
        "▁text=\"hel",
        "p\""
      ],
      [
        "▁query=\"restauran",
        "ts"
      ],
      [
        "▁text=\"promo",
        "2023\""
      ],
      [
        "▁gadget",
        "s\""
      ],
      [
        "▁Down",
        "load"
      ],
      [
        "netflix",
        ".com\""
      ],
      [
        "▁navigat",
        "ing"
      ],
      [
        "▁hist",
        "ory"
      ],
      [
        "0",
        "rd"
      ],
      [
        "a",
        "h"
      ],
      [
        "d",
        "y"
      ],
      [
        "j",
        "o"
      ],
      [
        "o",
        "o"
      ],
      [
        "p",
        "ul"
      ],
      [
        "w",
        "0rd"
      ],
      [
        "▁",
        "vegetarian"
      ],
      [
        "▁t",
        "ea"
      ],
      [
        "li",
        "ce"
      ],
      [
        "li",
        "ke\""
      ],
      [
        "ma",
        "de"
      ],
      [
        "▁w",
        "as"
      ],
      [
        "▁re",
        "lease"
      ],
      [
        "▁bo",
        "dy"
      ],
      [
        "▁text=\"s",
        "earch\""
      ],
      [
        "▁this",
        "?"
      ],
      [
        "▁A",
        "A"
      ],
      [
        "ation",
        "\""
      ],
      [
        "▁L",
        "og"
      ],
      [
        "▁L",
        "ater"
      ],
      [
        "▁pr",
        "o"
      ],
      [
        "▁address",
        "\""
      ],
      [
        "▁pasta",
        "\""
      ],
      [
        "▁maps.google.com",
        "."
      ],
      [
        "▁Apple",
        "."
      ],
      [
        "▁update",
        "s."
      ],
      [
        "▁service",
        "!"
      ],
      [
        "▁de",
        "ss"
      ],
      [
        "▁E",
        "n"
      ],
      [
        "us",
        "ic"
      ],
      [
        "▁translation",
        "s"
      ],
      [
        "▁message",
        "\""
      ],
      [
        "▁review",
        "s"
      ],
      [
        "che",
        "d"
      ],
      [
        "▁detail",
        "s\""
      ],
      [
        "▁Smith",
        "\""
      ],
      [
        "▁Video",
        "\""
      ],
      [
        "pul",
        "ar"
      ],
      [
        "▁tea",
        "m"
      ],
      [
        "f",
        "y"
      ],
      [
        "g",
        "u"
      ],
      [
        "i",
        "on"
      ],
      [
        "on",
        "g"
      ],
      [
        "▁text=\"",
        "a"
      ],
      [
        "▁text=\"",
        "v"
      ],
      [
        "▁text=\"",
        "de"
      ],
      [
        "er",
        "t"
      ],
      [
        "▁a",
        "s"
      ],
      [
        "▁m",
        "usic"
      ],
      [
        "▁field=\"",
        "me"
      ],
      [
        "▁url=\"https://",
        "cnn.com\""
      ],
      [
        "ti",
        "fy"
      ],
      [
        "▁w",
        "ee"
      ],
      [
        "▁url=\"https://www.",
        "espn.com\""
      ],
      [
        "▁head",
        "ing"
      ],
      [
        "pa",
        "ss"
      ],
      [
        ".google",
        ".com\""
      ],
      [
        "▁bbc.com",
        ","
      ],
      [
        "um",
        "p"
      ],
      [
        "▁twitter.com",
        "."
      ],
      [
        "▁F",
        "eedback"
      ],
      [
        "▁text=\"hello",
        "123\""
      ],
      [
        "▁st",
        "arted"
      ],
      [
        "▁home",
        "made"
      ],
      [
        "▁con",
        "tinu"
      ],
      [
        "lin",
        "e\""
      ],
      [
        "▁G",
        "reat"
      ],
      [
        "rea",
        "king"
      ],
      [
        "▁jane",
        ".doe"
      ],
      [
        "sec",
        "ret"
      ],
      [
        "▁Angele",
        "s"
      ],
      [
        "▁Go",
        "ogle"
      ],
      [
        "jo",
        "y"
      ],
      [
        "▁field=\"me",
        "ssage"
      ],
      [
        "▁continu",
        "e"
      ],
      [
        "P",
        "hone"
      ],
      [
        "S",
        "cri"
      ],
      [
        "a",
        "Scri"
      ],
      [
        "b",
        "r"
      ],
      [
        "b",
        "irthday"
      ],
      [
        "d",
        "it"
      ],
      [
        "i",
        "v"
      ],
      [
        "l",
        "as"
      ],
      [
        "n",
        "el"
      ],
      [
        "n",
        "ing"
      ],
      [
        "o",
        "li"
      ],
      [
        "r",
        "a"
      ],
      [
        "u",
        "le"
      ],
      [
        "u",
        "ment"
      ],
      [
        "u",
        "sh"
      ],
      [
        "v",
        "ery"
      ],
      [
        "▁c",
        "las"
      ],
      [
        "ch",
        "ine"
      ],
      [
        "▁p",
        "ush"
      ],
      [
        "he",
        "n"
      ],
      [
        "com",
        "me"
      ],
      [
        "▁text=\"",
        "like\""
      ],
      [
        "er",
        "\""
      ],
      [
        "it",
        "ar"
      ],
      [
        "av",
        "aScri"
      ],
      [
        "▁a",
        "ss"
      ],
      [
        "▁query=\"",
        "vegetarian"
      ],
      [
        "▁d",
        "ay"
      ],
      [
        "▁url=\"https://",
        "gmail.com\""
      ],
      [
        "▁w",
        "hen"
      ],
      [
        "▁re",
        "m"
      ],
      [
        "▁re",
        "comme"
      ],
      [
        "123",
        "!\""
      ],
      [
        "ve",
        "lo"
      ],
      [
        "dd",
        "it"
      ],
      [
        "▁index=",
        "8"
      ],
      [
        "▁index=",
        "9"
      ],
      [
        "▁index=",
        "23"
      ],
      [
        "▁index=",
        "20"
      ],
      [
        "▁weather",
        "\""
      ],
      [
        "▁A",
        "I"
      ],
      [
        "▁P",
        "assword123"
      ],
      [
        "▁recipes",
        "?"
      ],
      [
        "▁tutoria",
        "l"
      ],
      [
        "▁bar",
        "."
      ],
      [
        "nd",
        "ation"
      ],
      [
        "▁ma",
        "chine"
      ],
      [
        "▁today",
        "?"
      ],
      [
        "▁index=1",
        "0"
      ],
      [
        "▁index=1",
        "1"
      ],
      [
        "▁index=1",
        "2"
      ],
      [
        "▁index=1",
        "3"
      ],
      [
        "▁index=1",
        "4"
      ],
      [
        "▁index=1",
        "5"
      ],
      [
        "▁index=1",
        "6"
      ],
      [
        "▁index=1",
        "7"
      ],
      [
        "▁index=1",
        "8"
      ],
      [
        "▁index=1",
        "9"
      ],
      [
        "▁sec",
        "ret"
      ],
      [
        "▁sho",
        "p"
      ],
      [
        "▁six",
        "th"
      ],
      [
        "▁B",
        "est"
      ],
      [
        "▁B",
        "BC"
      ],
      [
        "▁de",
        "licious"
      ],
      [
        "▁de",
        "velo"
      ],
      [
        "▁Paris",
        "."
      ],
      [
        "▁i",
        "Phone"
      ],
      [
        "▁index=2",
        "1"
      ],
      [
        "▁index=2",
        "2"
      ],
      [
        "▁index=2",
        "4"
      ],
      [
        "▁doc",
        "ument"
      ],
      [
        "▁con",
        "c"
      ],
      [
        "▁query=\"translation",
        "s"
      ],
      [
        "▁text=\"B",
        "est"
      ],
      [
        "▁World",
        "\""
      ],
      [
        "▁chan",
        "nel"
      ],
      [
        "▁trend",
        "ing"
      ],
      [
        "▁H",
        "appy"
      ],
      [
        "▁ti",
        "ps"
      ],
      [
        "▁text=\"jane",
        ".doe"
      ],
      [
        "▁PM",
        "\""
      ],
      [
        "▁trial",
        "\""
      ],
      [
        "pec",
        "ial"
      ],
      [
        "▁text=\"H",
        "appy"
      ],
      [
        "▁gu",
        "itar"
      ],
      [
        "▁text=\"sign-",
        "up\""
      ],
      [
        "▁la",
        "unch"
      ],
      [
        "▁reg",
        "ard"
      ],
      [
        "▁En",
        "g"
      ],
      [
        "ched",
        "ule"
      ],
      [
        "▁text=\"v",
        "acation"
      ],
      [
        "oli",
        "day"
      ],
      [
        "▁clas",
        "se"
      ],
      [
        "avaScri",
        "p"
      ],
      [
        "▁ass",
        "ist"
      ],
      [
        "▁recomme",
        "ndation"
      ],
      [
        "h",
        "is"
      ],
      [
        "o",
        "b"
      ],
      [
        "’",
        "s"
      ],
      [
        "▁",
        "y"
      ],
      [
        "▁s",
        "c"
      ],
      [
        "▁s",
        "p"
      ],
      [
        "▁c",
        "at"
      ],
      [
        "or",
        "ning"
      ],
      [
        "te",
        "m"
      ],
      [
        "om",
        "e\""
      ],
      [
        "▁text=\"",
        "tech"
      ],
      [
        "er",
        "s"
      ],
      [
        "▁url=\"",
        "gmail.com\""
      ],
      [
        "▁field",
        "\""
      ],
      [
        "▁url=\"https://",
        "mail"
      ],
      [
        "▁on",
        "line\""
      ],
      [
        "▁url=\"https://www.",
        "github.com\""
      ],
      [
        "▁L",
        "et's"
      ],
      [
        "▁D",
        "irection"
      ],
      [
        "▁text=\"L",
        "et's"
      ],
      [
        "▁j",
        "ob"
      ],
      [
        "▁i",
        "tem"
      ],
      [
        "▁con",
        "n"
      ],
      [
        "▁url=\"http://",
        "amazon.com\""
      ],
      [
        "▁homepage",
        "."
      ],
      [
        "▁review",
        "s\""
      ],
      [
        "▁trend",
        "s"
      ],
      [
        "▁9",
        "0210"
      ],
      [
        "▁text=\"9",
        "0210"
      ],
      [
        "▁bread",
        "\""
      ],
      [
        "▁2024",
        "\""
      ],
      [
        "▁text=\"send",
        "\""
      ],
      [
        "▁acti",
        "v"
      ],
      [
        "▁br",
        "ing"
      ],
      [
        "▁query=\"p",
        "izza"
      ],
      [
        "▁classe",
        "s"
      ],
      [
        "▁url=\"https://mail",
        ".google.com\""
      ],
      [
        "▁text=\"90210",
        "\""
      ],
      [
        "#",
        "12345"
      ],
      [
        ".",
        "world"
      ],
      [
        "1",
        "9"
      ],
      [
        "3",
        "210"
      ],
      [
        "A",
        "V"
      ],
      [
        "E",
        "20"
      ],
      [
        "O",
        "rd"
      ],
      [
        "\\",
        "u"
      ],
      [
        "c",
        "123"
      ],
      [
        "e",
        "s"
      ],
      [
        "f",
        "ir"
      ],
      [
        "n",
        "ce"
      ],
      [
        "o",
        "ffee"
      ],
      [
        "p",
        "r"
      ],
      [
        "p",
        "interest"
      ],
      [
        "r",
        "ic"
      ],
      [
        "r",
        "ite"
      ],
      [
        "t",
        "her"
      ],
      [
        "u",
        "ser"
      ],
      [
        "w",
        "hat"
      ],
      [
        "▁",
        "john"
      ],
      [
        "▁",
        "#12345"
      ],
      [
        "▁s",
        "chedule"
      ],
      [
        "▁c",
        "ar"
      ],
      [
        "▁c",
        "ond"
      ],
      [
        "▁f",
        "ix"
      ],
      [
        "in",
        "ate"
      ],
      [
        "▁p",
        "interest"
      ],
      [
        "re",
        "nce"
      ],
      [
        "▁n",
        "eed"
      ],
      [
        "li",
        "sh"
      ],
      [
        "▁text=\"",
        "tr"
      ],
      [
        "ps",
        "um"
      ],
      [
        "it",
        "ion"
      ],
      [
        "ar",
        "ah"
      ],
      [
        "▁a",
        "no"
      ],
      [
        "▁qu",
        "ick"
      ],
      [
        "▁go",
        "ss"
      ],
      [
        "▁go",
        "ogle"
      ],
      [
        "▁query=\"",
        "T"
      ],
      [
        "▁url=\"",
        "docs.google.com\""
      ],
      [
        "an",
        "gu"
      ],
      [
        "▁d",
        "o"
      ],
      [
        "▁url=\"https://",
        "wikipedia.org\""
      ],
      [
        "▁w",
        "rite"
      ],
      [
        "▁l",
        "angu"
      ],
      [
        "el",
        "ta"
      ],
      [
        "ap",
        "ple"
      ],
      [
        "▁recipe",
        "."
      ],
      [
        "og",
        "a"
      ],
      [
        "▁th",
        "ank"
      ],
      [
        "ind",
        "ly"
      ],
      [
        "20",
        "19"
      ],
      [
        "▁lin",
        "e"
      ],
      [
        "▁tabId=",
        "0"
      ],
      [
        "▁tabId=",
        "1"
      ],
      [
        "▁P",
        "lay"
      ],
      [
        "ore",
        "m"
      ],
      [
        "ol",
        "or"
      ],
      [
        "▁tr",
        "anslate"
      ],
      [
        "▁video",
        "."
      ],
      [
        "▁video",
        "s."
      ],
      [
        "▁St",
        "."
      ],
      [
        "▁ma",
        "k"
      ],
      [
        "▁twitter.com",
        ","
      ],
      [
        "▁J",
        "ap"
      ],
      [
        "▁sec",
        "ure"
      ],
      [
        "▁cart",
        "."
      ],
      [
        "▁update",
        "\""
      ],
      [
        "▁service",
        "s"
      ],
      [
        "▁B",
        "o"
      ],
      [
        "▁text=\"J",
        "oin"
      ],
      [
        "▁text=\"P",
        "lay"
      ],
      [
        "▁i",
        "psum"
      ],
      [
        "ook",
        "ing"
      ],
      [
        "Pa",
        "ssword123"
      ],
      [
        "▁Tesla",
        "."
      ],
      [
        "▁ex",
        "it"
      ],
      [
        "▁con",
        "fe"
      ],
      [
        "▁tie",
        "\""
      ],
      [
        "▁City",
        "."
      ],
      [
        "▁text=\"1234",
        "\""
      ],
      [
        "▁url=\"http://",
        "bbc.com\""
      ],
      [
        "isc",
        "ount"
      ],
      [
        "▁12345",
        "6"
      ],
      [
        "▁text=\"12345",
        "6"
      ],
      [
        "▁meet",
        "ing"
      ],
      [
        "▁johndoe",
        "@example.com"
      ],
      [
        "▁johndoe",
        "@gmail.com"
      ],
      [
        "▁smartphone",
        "s"
      ],
      [
        "▁ti",
        "re"
      ],
      [
        "▁text=\"sec",
        "ure"
      ],
      [
        "▁text=\"sec",
        "ret"
      ],
      [
        "ontinu",
        "e"
      ],
      [
        "▁text=\"johndoe",
        "@example.com\""
      ],
      [
        "▁text=\"johndoe",
        "@gmail.com\""
      ],
      [
        "▁Birthday",
        "!"
      ],
      [
        "▁Birthday",
        "!\""
      ],
      [
        "▁R",
        "ead"
      ],
      [
        "▁begin",
        "ner"
      ],
      [
        "▁acti",
        "ve"
      ],
      [
        "▁text=\"re",
        "gister\""
      ],
      [
        "▁term",
        "inate"
      ],
      [
        "▁k",
        "indly"
      ],
      [
        "ord",
        "er"
      ],
      [
        "▁restaurant",
        "s\""
      ],
      [
        "▁text=\"de",
        "licious"
      ],
      [
        "br",
        "ity"
      ],
      [
        "ra",
        "ft"
      ],
      [
        "▁rem",
        "ove"
      ],
      [
        "▁Eng",
        "lish"
      ],
      [
        "▁Direction",
        "s"
      ],
      [
        "▁conn",
        "ect"
      ],
      [
        "AV",
        "E20"
      ],
      [
        "Ord",
        "er"
      ],
      [
        "\\u",
        "2019"
      ],
      [
        "fir",
        "m"
      ],
      [
        "pinterest",
        ".com\""
      ],
      [
        "▁cond",
        "ition"
      ],
      [
        "▁pinterest",
        ".com"
      ],
      [
        "▁ano",
        "ther"
      ],
      [
        "▁langu",
        "age"
      ],
      [
        "▁confe",
        "rence"
      ],
      [
        "\\u2019",
        "s"
      ],
      [
        "I",
        "n"
      ],
      [
        "d",
        "i"
      ],
      [
        "e",
        "gister\""
      ],
      [
        "f",
        "i"
      ],
      [
        "i",
        "p\""
      ],
      [
        "i",
        "mes"
      ],
      [
        "j",
        "ect"
      ],
      [
        "o",
        "ls"
      ],
      [
        "u",
        "n"
      ],
      [
        "▁",
        "4"
      ],
      [
        "▁",
        "555-"
      ],
      [
        "▁",
        "456"
      ],
      [
        "▁s",
        "ee"
      ],
      [
        "▁s",
        "pa"
      ],
      [
        "▁c",
        "or"
      ],
      [
        "▁f",
        "a"
      ],
      [
        "▁f",
        "re"
      ],
      [
        "or",
        "ts"
      ],
      [
        "▁p",
        "re"
      ],
      [
        "▁text=\"",
        "get"
      ],
      [
        "▁text=\"",
        "555-"
      ],
      [
        "▁text=\"",
        "456"
      ],
      [
        "▁b",
        "reaking"
      ],
      [
        "▁to",
        "ols"
      ],
      [
        "tt",
        "om"
      ],
      [
        "ie",
        "s"
      ],
      [
        "▁go",
        "od"
      ],
      [
        "▁m",
        "orning"
      ],
      [
        "▁query=\"",
        "t"
      ],
      [
        "▁query=\"",
        "pa"
      ],
      [
        "ss",
        "w0rd"
      ],
      [
        "le",
        "ndar"
      ],
      [
        "ma",
        "ge"
      ],
      [
        "▁h",
        "ave"
      ],
      [
        "123",
        "!"
      ],
      [
        "▁url=\"https://www.",
        "instagram.com\""
      ],
      [
        "▁bo",
        "ttom"
      ],
      [
        "▁York",
        "?"
      ],
      [
        "▁visit",
        "ing"
      ],
      [
        "▁text=\"S",
        "end"
      ],
      [
        "▁load",
        "ing"
      ],
      [
        "▁T",
        "o"
      ],
      [
        "▁T",
        "imes"
      ],
      [
        "▁St",
        "arted"
      ],
      [
        "▁D",
        "elta"
      ],
      [
        "▁se",
        "vent"
      ],
      [
        "▁J",
        "oin"
      ],
      [
        "▁J",
        "avaScrip"
      ],
      [
        "▁text=\"C",
        "ontinue\""
      ],
      [
        "▁text=\"P",
        "a"
      ],
      [
        "▁j",
        "ump"
      ],
      [
        "▁fif",
        "th"
      ],
      [
        "▁Paris",
        "?"
      ],
      [
        "▁learn",
        "ing"
      ],
      [
        "▁directions",
        "."
      ],
      [
        "▁query=\"c",
        "offee"
      ],
      [
        "▁i",
        "m"
      ],
      [
        "▁gmail.com",
        "?"
      ],
      [
        "▁read",
        "s"
      ],
      [
        "▁su",
        "pport"
      ],
      [
        "▁ca",
        "lendar"
      ],
      [
        "po",
        "tify"
      ],
      [
        "▁text=\"R",
        "egister\""
      ],
      [
        "▁text=\"G",
        "et"
      ],
      [
        "▁trend",
        "s\""
      ],
      [
        "▁9",
        "8765"
      ],
      [
        "ale",
        "ndar"
      ],
      [
        "▁text=\"Down",
        "load"
      ],
      [
        "▁text=\"9",
        "8765"
      ],
      [
        "▁R",
        "e"
      ],
      [
        "▁inf",
        "o"
      ],
      [
        "▁plan",
        "s"
      ],
      [
        "▁plan",
        "s\""
      ],
      [
        "▁field=\"c",
        "alendar"
      ],
      [
        "@company",
        ".com"
      ],
      [
        "@company",
        ".com\""
      ],
      [
        "▁Later",
        "\""
      ],
      [
        "▁jane.doe",
        "@example.com"
      ],
      [
        "▁conc",
        "erts"
      ],
      [
        "▁text=\"jane.doe",
        "@example.com\""
      ],
      [
        "▁sp",
        "orts"
      ],
      [
        "▁activ",
        "ate"
      ],
      [
        "▁text=\"123456",
        "\""
      ],
      [
        "di",
        "um"
      ],
      [
        "▁cor",
        "ner"
      ],
      [
        "▁query=\"pa",
        "sta"
      ],
      [
        "▁sevent",
        "h"
      ],
      [
        "4",
        "3210"
      ],
      [
        "@",
        "world"
      ],
      [
        "I",
        "Y"
      ],
      [
        "S",
        "ec"
      ],
      [
        "_",
        "doe\""
      ],
      [
        "a",
        "i"
      ],
      [
        "c",
        "o"
      ],
      [
        "c",
        "le"
      ],
      [
        "f",
        "low"
      ],
      [
        "g",
        "age"
      ],
      [
        "i",
        "ll"
      ],
      [
        "l",
        "an"
      ],
      [
        "m",
        "s"
      ],
      [
        "m",
        "ate"
      ],
      [
        "o",
        "ver"
      ],
      [
        "r",
        "ong"
      ],
      [
        "u",
        "ce"
      ],
      [
        "u",
        "sername"
      ],
      [
        "v",
        "is"
      ],
      [
        "y",
        "ork"
      ],
      [
        "▁",
        "$"
      ],
      [
        "▁c",
        "ity"
      ],
      [
        "ea",
        "s\""
      ],
      [
        "ea",
        "rest"
      ],
      [
        "or",
        "ma"
      ],
      [
        "te",
        "nt"
      ],
      [
        "in",
        "ked"
      ],
      [
        "ex",
        "pl"
      ],
      [
        "on",
        "th"
      ],
      [
        "▁p",
        "ick"
      ],
      [
        "▁text=\"",
        "ter"
      ],
      [
        "▁text=\"",
        "best"
      ],
      [
        "▁text=\"",
        "latest"
      ],
      [
        "▁text=\"",
        "new"
      ],
      [
        "▁text=\"",
        "expl"
      ],
      [
        "▁u",
        "nd"
      ],
      [
        "lo",
        "ff"
      ],
      [
        "▁a",
        "ll"
      ],
      [
        "cr",
        "unch"
      ],
      [
        "▁m",
        "onth"
      ],
      [
        "▁query=\"",
        "N"
      ],
      [
        "▁query=\"",
        "what"
      ],
      [
        "▁url=\"",
        "cnn.com\""
      ],
      [
        "▁url=\"",
        "linkedin.com\""
      ],
      [
        "ack",
        "over"
      ],
      [
        "ti",
        "cle"
      ],
      [
        "tion",
        "s"
      ],
      [
        "ad",
        "vis"
      ],
      [
        "▁h",
        "oliday"
      ],
      [
        "▁l",
        "ea"
      ],
      [
        "▁url=\"https://www.",
        "weather.com\""
      ],
      [
        "▁url=\"https://www.",
        "facebook.com\""
      ],
      [
        "▁url=\"https://www.",
        "netflix.com\""
      ],
      [
        "maz",
        "ing"
      ],
      [
        "▁S",
        "ale"
      ],
      [
        "▁S",
        "ecurePass"
      ],
      [
        "▁e",
        "very"
      ],
      [
        "ke",
        "nd"
      ],
      [
        "ia",
        "loff"
      ],
      [
        "▁link",
        "?"
      ],
      [
        "▁text=\"S",
        "t"
      ],
      [
        "▁text=\"S",
        "ubmit"
      ],
      [
        "▁text=\"S",
        "ecurePass"
      ],
      [
        "▁M",
        "eeting"
      ],
      [
        "▁C",
        "h"
      ],
      [
        "▁L",
        "inked"
      ],
      [
        "▁pr",
        "ice\""
      ],
      [
        "▁video",
        "s\""
      ],
      [
        "ip",
        "advis"
      ],
      [
        "▁twitter.com",
        "?"
      ],
      [
        "▁of",
        "f"
      ],
      [
        "▁tutorials",
        "?"
      ],
      [
        "▁text=\"p",
        "izza"
      ],
      [
        "▁text=\"c",
        "ontinue\""
      ],
      [
        "▁en",
        "gage"
      ],
      [
        "▁ab",
        "c123"
      ],
      [
        "▁Tokyo",
        "."
      ],
      [
        "▁nearby",
        "."
      ],
      [
        "▁name",
        "."
      ],
      [
        "Pa",
        "ssword123\""
      ],
      [
        "▁con",
        "tent"
      ],
      [
        "ac",
        "y"
      ],
      [
        "▁su",
        "nny"
      ],
      [
        "lic",
        "y"
      ],
      [
        "▁pancake",
        "s"
      ],
      [
        "▁text=\"N",
        "ext\""
      ],
      [
        "▁text=\"st",
        "art\""
      ],
      [
        "▁sign-",
        "in"
      ],
      [
        "▁great",
        "\""
      ],
      [
        "▁expl",
        "or"
      ],
      [
        "▁ar",
        "ticle"
      ],
      [
        "▁inf",
        "orma"
      ],
      [
        "▁event",
        "\""
      ],
      [
        "pec",
        "ialoff"
      ],
      [
        "▁later",
        "\""
      ],
      [
        "▁field=\"c",
        "ity"
      ],
      [
        "▁welcome",
        "2023"
      ],
      [
        "▁show",
        "times"
      ],
      [
        "▁excellent",
        "\""
      ],
      [
        "▁example",
        "@example.com"
      ],
      [
        "▁noon",
        "\""
      ],
      [
        "▁text=\"example",
        "@example.com\""
      ],
      [
        "▁term",
        "s"
      ],
      [
        "▁text=\"M",
        "eeting"
      ],
      [
        "▁text=\"su",
        "nny"
      ],
      [
        "78",
        "9"
      ],
      [
        "▁r",
        "ain"
      ],
      [
        "▁id",
        "eas"
      ],
      [
        "▁id",
        "eas\""
      ],
      [
        "▁Inc.",
        "\""
      ],
      [
        "▁AA",
        "100"
      ],
      [
        "▁Log",
        "in"
      ],
      [
        "▁dess",
        "ert"
      ],
      [
        "iv",
        "acy"
      ],
      [
        "▁develo",
        "per"
      ],
      [
        "▁sc",
        "ore"
      ],
      [
        "▁query=\"T",
        "esla"
      ],
      [
        "▁fa",
        "uce"
      ],
      [
        "ill",
        "ing"
      ],
      [
        "▁text=\"ter",
        "ms"
      ],
      [
        "▁und",
        "er"
      ],
      [
        "ackover",
        "flow"
      ],
      [
        "▁Linked",
        "In"
      ],
      [
        "ipadvis",
        "or"
      ],
      [
        "▁informa",
        "tion"
      ],
      [
        "S",
        "ubject\""
      ],
      [
        "a",
        "re"
      ],
      [
        "c",
        "ation"
      ],
      [
        "e",
        "d"
      ],
      [
        "k",
        "\""
      ],
      [
        "m",
        "o"
      ],
      [
        "p",
        "ing"
      ],
      [
        "u",
        "pport"
      ],
[...]
